{"<s>":0,"<pad>":1,"</s>":2,"<unk>":3,"<mask>":4,"!":5,"\"":6,"#":7,"$":8,"%":9,"&":10,"'":11,"(":12,")":13,"*":14,"+":15,",":16,"-":17,".":18,"/":19,"0":20,"1":21,"2":22,"3":23,"4":24,"5":25,"6":26,"7":27,"8":28,"9":29,":":30,";":31,"<":32,"=":33,">":34,"?":35,"@":36,"A":37,"B":38,"C":39,"D":40,"E":41,"F":42,"G":43,"H":44,"I":45,"J":46,"K":47,"L":48,"M":49,"N":50,"O":51,"P":52,"Q":53,"R":54,"S":55,"T":56,"U":57,"V":58,"W":59,"X":60,"Y":61,"Z":62,"[":63,"\\":64,"]":65,"^":66,"_":67,"`":68,"a":69,"b":70,"c":71,"d":72,"e":73,"f":74,"g":75,"h":76,"i":77,"j":78,"k":79,"l":80,"m":81,"n":82,"o":83,"p":84,"q":85,"r":86,"s":87,"t":88,"u":89,"v":90,"w":91,"x":92,"y":93,"z":94,"{":95,"|":96,"}":97,"~":98,"¡":99,"¢":100,"£":101,"¤":102,"¥":103,"¦":104,"§":105,"¨":106,"©":107,"ª":108,"«":109,"¬":110,"®":111,"¯":112,"°":113,"±":114,"²":115,"³":116,"´":117,"µ":118,"¶":119,"·":120,"¸":121,"¹":122,"º":123,"»":124,"¼":125,"½":126,"¾":127,"¿":128,"À":129,"Á":130,"Â":131,"Ã":132,"Ä":133,"Å":134,"Æ":135,"Ç":136,"È":137,"É":138,"Ê":139,"Ë":140,"Ì":141,"Í":142,"Î":143,"Ï":144,"Ð":145,"Ñ":146,"Ò":147,"Ó":148,"Ô":149,"Õ":150,"Ö":151,"×":152,"Ø":153,"Ù":154,"Ú":155,"Û":156,"Ü":157,"Ý":158,"Þ":159,"ß":160,"à":161,"á":162,"â":163,"ã":164,"ä":165,"å":166,"æ":167,"ç":168,"è":169,"é":170,"ê":171,"ë":172,"ì":173,"í":174,"î":175,"ï":176,"ð":177,"ñ":178,"ò":179,"ó":180,"ô":181,"õ":182,"ö":183,"÷":184,"ø":185,"ù":186,"ú":187,"û":188,"ü":189,"ý":190,"þ":191,"ÿ":192,"Ā":193,"ā":194,"Ă":195,"ă":196,"Ą":197,"ą":198,"Ć":199,"ć":200,"Ĉ":201,"ĉ":202,"Ċ":203,"ċ":204,"Č":205,"č":206,"Ď":207,"ď":208,"Đ":209,"đ":210,"Ē":211,"ē":212,"Ĕ":213,"ĕ":214,"Ė":215,"ė":216,"Ę":217,"ę":218,"Ě":219,"ě":220,"Ĝ":221,"ĝ":222,"Ğ":223,"ğ":224,"Ġ":225,"ġ":226,"Ģ":227,"ģ":228,"Ĥ":229,"ĥ":230,"Ħ":231,"ħ":232,"Ĩ":233,"ĩ":234,"Ī":235,"ī":236,"Ĭ":237,"ĭ":238,"Į":239,"į":240,"İ":241,"ı":242,"Ĳ":243,"ĳ":244,"Ĵ":245,"ĵ":246,"Ķ":247,"ķ":248,"ĸ":249,"Ĺ":250,"ĺ":251,"Ļ":252,"ļ":253,"Ľ":254,"ľ":255,"Ŀ":256,"ŀ":257,"Ł":258,"ł":259,"Ń":260,"à¤":261,"à¥":262,"à¥į":263,"Ġà¤":264,"à¤¾":265,"âĢ":266,"ĠâĢ":267,"ĠâĢ¢":268,"à¤¤":269,"à¤°":270,"à¤¿":271,"à¤¯":272,"à¤¨":273,"Ġ1":274,"à¤®":275,"à¤¸":276,"à¤µ":277,"à¥ĩ":278,"à¤ĥ":279,"à¤ķ":280,"à¤Ĥ":281,"à¤¦":282,"à¥ģ":283,"à¥¤":284,"à¤ª":285,"Ġà¤¸":286,"Ġà¥¤":287,"à¥Ģ":288,"à¤²":289,"Ġà¤ħ":290,"à¤·":291,"à¤£":292,"Ġà¤ª":293,"à¤Ĺ":294,"à¤¶":295,"à¥ĭ":296,"Ġà¤ķ":297,"Ġà¤µ":298,"à¤¹":299,"Ġà¤¤":300,"à¤ľ":301,"à¤§":302,"à¤¥":303,"à¤Ń":304,"à¤ļ":305,"Ġà¤®":306,"Ġà¤¨":307,"à¥ĥ":308,"à¥Ĥ":309,"à¤¾à¤ĥ":310,"à¤Ł":311,"Ġ2":312,"Ġà¤Ń":313,"Ġ3":314,"Ġ4":315,"Ġ5":316,"Ġ6":317,"Ġ7":318,"Ġ10":319,"Ġ8":320,"Ġ9":321,"Ġ12":322,"Ġ11":323,"Ġ17":324,"Ġ16":325,"Ġ14":326,"Ġà¤ĩ":327,"Ġ15":328,"Ġ13":329,"Ġà¤Ĩ":330,"à¤¾à¤Ĥ":331,"Ġà¤¦":332,"Ġà¤ļ":333,"à¤¡":334,"Ġà¤ħà¤¸":335,"à¥Ī":336,"à¤µà¤¤":337,"Ġà¤ĩà¤¤":338,"Ġà¤¶":339,"Ġà¤ı":340,"Ġà¤ľ":341,"à¤¬":342,"Ġà¤°":343,"Ġà¤¯":344,"à¤°à¤¤":345,"à¤Ļ":346,"à¤¯à¤¤":347,"à¤°à¤®":348,"à¤°à¤¸":349,"Ġà¤Ĺ":350,"Ġà¤¬":351,"à¤ĸ":352,"à¤ŀ":353,"Ġà¤ī":354,"Ġ18":355,"à¤¯à¤¸":356,"à¤¤à¤®":357,"à¤µà¤°":358,"à¤µà¤¨":359,"à¤¯à¤®":360,"à¤¯à¤¨":361,"Ġà¤¸à¤®":362,"à¥Į":363,"Ġà¤ħà¤¨":364,"Ġà¤µà¤°":365,"Ġà¤Ĩà¤¸":366,"à¤Ĺà¤°":367,"à¤¿à¤ĥ":368,"à¤ķà¤°":369,"Ġà¤¹":370,"Ġà¤ħà¤¤":371,"Ġà¤ħà¤ª":372,"à¤¤à¤°":373,"à¤¨à¤¸":374,"à¤¡à¤²":375,"Ġà¤ªà¤°":376,"Ġà¤¤à¤¸":377,"à¤µà¤¸":378,"Ġà¤ıà¤µ":379,"Ġà¤¸à¤¨":380,"à¥į,":381,"à¤¤à¤µ":382,"Ġà¤²":383,"à¤¨à¤®":384,"Ġà¤¸à¤°":385,"à¤ªà¤°":386,"Ġà¤Ńà¤µà¤¤":387,"00":388,"à¤°à¤£":389,"à¤½":390,"à¤°à¤ķ":391,"Ġà¤¤à¤¤":392,"..":393,"à¤°à¤¦":394,"à¤¨à¤Ĺà¤°":395,"à¤ł":396,"Ġà¤®à¤¹":397,"à¤®à¤£":398,"ĠÂ":399,"à¤¯à¤ķ":400,"ĠÂ·":401,"Ġà¤ħà¤Ń":402,"à¤ĥ,":403,"Ġà¤ķà¤°":404,"à¤¤à¤¤":405,"01":406,"Ġ19":407,"à¤ħ":408,"à¤¤à¤¸":409,"à¤ľà¤¨":410,"à¤®à¤¨":411,"19":412,"Ġà¤ľà¤¨":413,"à¤ĺ":414,"à¤°à¤µ":415,"à¥¤à¥¤":416,"Ġà¤§":417,"Ġà¤¤à¤®":418,"à¤Ľ":419,"à¤ļà¤¨":420,"10":421,"à¤¿à¤Ĥ":422,"18":423,"11":424,"20":425,"12":426,"15":427,"17":428,"14":429,"à¤ķà¤¸":430,"16":431,"13":432,"30":433,"25":434,"26":435,"24":436,"28":437,"23":438,"22":439,"40":440,"21":441,"27":442,"à¥ģà¤Ĥ":443,"29":444,"35":445,"33":446,"37":447,"36":448,"42":449,"Ġà¤¤à¤¦":450,"31":451,"34":452,"38":453,"32":454,"39":455,"à¥Īà¤ĥ":456,"41":457,"à¤ªà¤¤":458,"05":459,"02":460,"04":461,"06":462,"07":463,"03":464,"09":465,"50":466,"à¤°à¤¹":467,"47":468,"60":469,"à¤¤à¤¨":470,"57":471,"56":472,"48":473,"58":474,"45":475,"Ġà¤®à¤£":476,"49":477,"75":478,"80":479,"97":480,"91":481,"65":482,"67":483,"99":484,"52":485,"46":486,"90":487,"92":488,"43":489,"64":490,"98":491,"44":492,"61":493,"77":494,"51":495,"55":496,"70":497,"54":498,"96":499,"53":500,"69":501,"Ġà¤¸à¤¹":502,"59":503,"87":504,"66":505,"88":506,"63":507,"74":508,"72":509,"73":510,"62":511,"84":512,"71":513,"68":514,"86":515,"94":516,"82":517,"78":518,"83":519,"95":520,"08":521,"79":522,"76":523,"93":524,"85":525,"89":526,"81":527,"à¤·à¤£":528,"à¤Ĥ,":529,"âĢĿ":530,"Ġà¤īà¤¤":531,"à¤¿,":532,"ĠâĢľ":533,"Ġ'":534,"Ġà¤¯à¤¤":535,"à¤®à¤¸":536,"à¤¯à¤ª":537,"Ġà¤īà¤ª":538,"Ġà¤ıà¤ķ":539,"ĠĊ":540,"à¤²à¤¯":541,"à¥ĭà¤ĥ":542,"à¤¾-":543,"Ġà¤®à¤¨":544,"Ġà¤ħà¤§":545,"à¤¶à¤¸":546,"à¥ģà¤ĥ":547,"à¤¨à¤ķ":548,"à¥įà¥¤":549,"à¤·à¤¯":550,"à¤°à¤¨":551,"à¤®à¤¹":552,"à¤¦à¤°":553,"Ġà¤ħà¤Ńà¤µà¤¤":554,"à¤°à¤¯":555,"à¤¨à¤¨":556,"à¤«":557,"à¤¿à¥¤":558,"à¤²à¤¸":559,"Ġà¤¬à¤¹":560,"...":561,"Ġà¤¤à¤¥":562,"à¤¾,":563,"à¤°à¤Ń":564,"à¥Ģ-":565,"à¤µà¤®":566,"à¤³":567,"à¤·à¤¸":568,"à¤Ĺà¤¤":569,"à¤µà¤ķ":570,"à¤£à¤®":571,"à¤¯à¤µ":572,"Ġà¤¯à¤¦":573,"Ġà¤ıà¤¤":574,"à¤¥à¤®":575,"à¤¸à¤¨":576,"à¤°à¤¤à¤¸":577,"à¤²à¤ķ":578,"à¤µà¤¦":579,"Ġà¤ĩà¤¦":580,"à¥į-":581,"à¤¸à¤®":582,"à¤¤à¤¯":583,"à¤¶à¤¤":584,"Ġà¤ħà¤°":585,"à¤Ĺà¤°à¤¸":586,"à¤ªà¤¦":587,"àª":588,"Ġ-":589,"à¤¦à¤¯":590,"à¤µà¤²":591,"à¤ªà¤¨":592,"à¤§à¤°":593,"à¥ĩà¤ĥ":594,"à¤¦à¤¸":595,"à¤¡à¤²à¤®":596,"à¤¥à¤²":597,"à¤°à¤ª":598,"Ġà¤Ńà¤µ":599,"à¤®à¤ķ":600,"à¤¶à¤¨":601,"à¤¡à¤²à¤¸":602,"à¤½à¤ª":603,"Ġà¤ķà¤¥":604,"Ġà¤¶à¤ķ":605,"à¤¦à¤¨":606,"âĢĻ":607,"à¤Ĺà¤¸":608,"Ġà¤ĸ":609,"à¤¿.":610,"à¤®à¤ª":611,"à¤¸à¤¸":612,"à¤Ī":613,"Ġà¤īà¤¦":614,"Ġà¤¨à¤Ĺà¤°":615,"Ġà¤Ńà¤Ĺ":616,"à¤¤à¤ķ":617,"à¤¯à¤°":618,"à¤§à¤®":619,"à¤²à¤¨":620,"Ġà¤Ńà¤µà¤¨":621,"à¤¾à¤ĥ,":622,"à¤°à¤¶":623,"à¤¦à¤¶":624,"Ġ|":625,"à¤¸à¤°":626,"à¤ĩ":627,"à¤ı":628,"Ġà¤«":629,"à¤µà¤ª":630,"Ġà¤ħà¤¯":631,"ĠâĢĵ":632,"à¥ĩ,":633,"Ġà¤®à¤§":634,"Ġà¤¸à¤Ļ":635,"à¤Ĩ":636,"à¤£à¤¸":637,"à¤¢":638,"à¤®à¤°":639,"à¤ªà¤ķ":640,"à¤µà¤¶":641,"à¤Łà¤°":642,"à¤§à¤¨":643,"Ġà¤ªà¤ŀ":644,"à¤®à¤¤":645,"à¥Ģ,":646,"Ġà¤¸à¤¤":647,"à¤µà¤¯":648,"Ġà¤ļà¤¤":649,"à¤½à¤¸":650,"à¤Łà¤ķ":651,"à¤¬à¤¨":652,"Ġà¤Ĩà¤°":653,"à¤ľà¤¸":654,"à¤®à¤¦":655,"à¤ĥà¥¤":656,"Ġà¤¯à¤¥":657,"à¤ī":658,"à¤°à¤¥à¤®":659,"ĠĠ":660,"à¥įâĢ":661,"Ġà¤ĺ":662,"à¤Ľà¤¤":663,"Ġà¤ıà¤·":664,"à¤°à¤ļ":665,"à¤Ĺà¤£":666,"Ġà¤ªà¤¶":667,"Ġ\"":668,"à¤¶à¤ķ":669,"à¤²à¤®":670,"à¤µà¤µ":671,"à¤ªà¤¸":672,"à¤Ĺà¤°à¤®":673,"Ġà¤Ī":674,"à¤¹à¤¤":675,"à¥¥":676,"à¤²à¤Ń":677,"à¤¹à¤¸":678,"à¤Ĺà¤®":679,"à¤ļà¤°":680,"à¤¤à¤µà¤¨":681,"à¤¹à¤¨":682,"à¤°à¤ľ":683,"à¤ķà¤®":684,"à¤ķà¤²":685,"Ġà¤Ĩà¤¸à¤¨":686,"à¤²à¤ª":687,"Ġà¤¡":688,"à¤·à¤¤":689,"à¤¨à¤Ĺà¤°à¤¸":690,"à¤¯à¤¦":691,"Ġà¤ªà¤¦":692,"à¤¨à¤¦":693,"à¤¬à¤¦":694,"Ġà¤ªà¤¤":695,"Ġà¤ħà¤Ĺ":696,"à¤¸à¤µ":697,"à¤¨à¤¤":698,"à¤®à¤®":699,"à¤ķà¤µ":700,"Ġà¤ķà¤²":701,"à¥ĩà¥¤":702,"à¥Ģà¤Ĥ":703,"Ġà¤¦à¤ķ":704,"à¤°à¤®à¤£":705,"à¥įâĢį":706,"à¤¨à¤µ":707,"Ġà¤§à¤°":708,"à¤¬à¤°":709,"Ġà¤ªà¤°à¤¨":710,"Ġà¤ħà¤ķ":711,"ĠâĢĺ":712,"à¤¤à¤ª":713,"Ġà¤ıà¤¤à¤¤":714,"à¤¨à¤°":715,"à¤¯à¤¯":716,"à¤¥à¤¸":717,"Ġà¤ħà¤ķà¤°":718,"à¤Ľà¤¨":719,"Ġà¤ħà¤¹":720,"Ġ201":721,"à¤ľà¤°":722,"à¤¯à¤µà¤¸":723,"Ġà¤Ĩà¤Ļ":724,"à¤Ĺà¤²":725,"Ġà¤µà¤¸":726,"à¤ķà¤°à¤£":727,"à¤°à¤§":728,"à¤¯à¤¶":729,"à¤Ńà¤µà¤¤":730,"Ġà¤ħà¤®":731,"Ġà¤Ĩà¤¤":732,"à¤²à¤µ":733,"à¤¦à¤®":734,"à¤Łà¤¨":735,"Ġà¤ħà¤µ":736,"Ġà¤¦à¤°":737,"à¤¹à¤°":738,"à¤¯à¤Ń":739,"Ġà¤ıà¤¤à¤¸":740,"à¤ļà¤¤":741,"à¤¿-":742,"Ġà¥¥":743,"Ġà¤ħà¤²":744,"à¤ľà¤¯":745,"Ġà¤ªà¤°à¤®":746,"à¤²à¤¤":747,"Ġà¤ħà¤¨à¤¨":748,"Ġà¤²à¤ķ":749,"à¤¯à¤ľ":750,"Ġà¤ľà¤¨à¤¸":751,"à¤Łà¤®":752,"Ġà¤ĩà¤¨":753,"nd":754,"Ġà¤Ł":755,"à¤¤à¤¦":756,"Ġà¤·":757,"à¤ķà¤¨":758,"Ġà¤īà¤ļ":759,"à¤·à¤ķ":760,"à¥ī":761,"à¤¸à¤ķ":762,"à¤®à¤¯":763,"Ġà¤Ńà¤Ĺà¤µà¤¤":764,"à¤¨à¤ª":765,"Ġà¤Ĩà¤§":766,"Ġ200":767,"Ġà¤īà¤ķ":768,"à¥įà¥¤à¥¤":769,"à¤°à¤°":770,"Ġà¤Ĺà¤¤":771,"Ġà¤Ĩà¤¨":772,"à¤§à¤¸":773,"Ġà¤®à¤¹à¤¤":774,"Ġà¤ĵ":775,"à¤¶à¤°":776,"Ġà¤¸à¤ª":777,"Ġà¤ķà¤¨":778,"à¥Ģ.":779,"Ġà¤ķà¤¶":780,"à¤ħà¤¸":781,"Ġà¤¨à¤Ĺà¤°à¤¸":782,"Ġà¤Ĺà¤ļ":783,"Ġà¤°à¤ķ":784,"Ġà¤Ĩà¤ķ":785,"à¥įâĢĿ":786,"Ġà¤ĭ":787,"à¥į'":788,"à¤ķà¤¤":789,"à¤®à¤µ":790,"à¤Ĺà¤¨":791,"Ġà¤ľà¤²":792,"à¤¿à¤ĥ,":793,"à¤¤à¤µà¤¤":794,"Ġà¤Ľ":795,"à¤¤à¤°à¤®":796,"à¤¯à¤£":797,"à¤Ĺà¤¦":798,"à¤µà¤Ń":799,"Ġà¤ħà¤¦":800,"à¤£à¤¨":801,"à¤¾:":802,"à¤§à¤µ":803,"Ġà¤¤à¤°":804,"Ġà¤®à¤®":805,"à¤ªà¤¯":806,"Ġà¤Ĩà¤¦":807,"Ġà¤ħà¤Ļ":808,"Ġà¤īà¤ªà¤¯":809,"à¤µà¤¤à¤¨":810,"à¤¸à¤¯":811,"à¤¹à¤²":812,"à¤¦à¤¤":813,"Ġ?":814,"Ġà¤¶à¤°":815,"Ġà¤¹à¤°":816,"ÉĻ":817,"à¤ªà¤®":818,"à¤¸à¤¤":819,"à¤Ńà¤µ":820,"Ġà¤Ĩà¤Ĺ":821,"à¤°à¤µà¤°":822,"Ġà¤¤à¤®à¤¸":823,"à¤ļà¤ķ":824,"à¤Ńà¤ķ":825,"Ġà¤¶à¤¬":826,"à¤°à¤ªà¤¤":827,"Ġà¤ľà¤¨à¤¸à¤Ļ":828,"à¤¾à¤Ĥ,":829,"in":830,"à¤§à¤¤":831,"Ġà¤ħà¤·":832,"Ġà¤Ķ":833,"à¤·à¤®":834,"à¤¦à¤ª":835,"Ġà¤Ĩà¤¶":836,"Ġà¤Ĳ":837,"Ġà¤¨à¤¦":838,"Ġà¤ķà¤¸":839,"à¤¨à¤ķà¤®":840,"à¤¬à¤²":841,"Ġà¤¦à¤¤":842,"à¤¹à¤®":843,"Ġà¤Ĩà¤ļ":844,"Ġà¤ħà¤¶":845,"à¤ķà¤Ł":846,"Ġà¤¤à¤¯":847,"à¤¤à¤®à¤¸":848,"à¤ľà¤²":849,"à¤¯à¤¯à¤¨":850,"à¤Łà¤µ":851,"à¤«à¤²":852,"à¤¶à¤®":853,"Ġà¤ļà¤¨":854,"Ġà¤īà¤²":855,"âĢĿ,":856,"à¤µà¤ľ":857,"à¤ªà¤£":858,"Ġà¤®à¤¤":859,"à¤ķà¤ª":860,"à¤¶à¤¯":861,"à«":862,"Ġà¤¸à¤ŀ":863,"Ġà¤¨à¤Ĺà¤°à¤®":864,"à¤ķà¤ķ":865,"à¤·à¤¦":866,"'-":867,"à¤ľà¤®":868,"Ġà¤Ĩà¤¯":869,"al":870,"à¤¨à¤¯":871,"à¤¼":872,"Ġà¤ªà¤ķ":873,"Ġà¤¸à¤®à¤¯":874,"ĠĠĠĠ":875,"Ġà¤ħà¤¥":876,"à¥ģ-":877,"à¤ħà¤¨":878,"Ġà¤ķà¤¦":879,"à¤°à¤¯à¤¤":880,"à¤Ńà¤µà¤¨":881,"à¤ĸà¤£":882,"Ġà¤¬à¤¹à¤µ":883,"ht":884,"à¤¦à¤ķ":885,"à¤¨à¤Ĺà¤°à¤®":886,"à¤¾à¥¤":887,"Ġà¤Ĩà¤Ĺà¤¤":888,"à¤¸à¤Ļ":889,"Ġà¤ķà¤µ":890,"à¥ģ,":891,"Ġà¤Ĺà¤£":892,"à¤ľà¤§":893,"Ġà¤¸à¤®à¤°":894,"Ġà¤Ĺà¤¨":895,"à¤ļà¤¯":896,"Ġà¤Ĩà¤°à¤¬":897,"ar":898,"à¤®à¤Ń":899,"Ġà¤ĩà¤µ":900,"Ġà¤Ĩà¤¹":901,"Ġà¤Īà¤¶":902,"à¤°à¤Ĺ":903,"ĠâĢĻ":904,"à¤µà¤°à¤£":905,"Ġà¤¯à¤ľ":906,"Ġà¤¬à¤¸à¤¯":907,"à¤°à¤¦à¤°":908,"à¤®à¤§":909,"Ġà¤§à¤¨":910,"à¤®à¤²":911,"Ġà¤¸à¤¦":912,"Ġà¤ıà¤ķà¤¸":913,"à¤²à¤¯à¤¸":914,"à¤Ĥ...":915,"Ġà¤¯à¤¸":916,"Ġà¤ħà¤ľ":917,"à¤¤à¤¶":918,"Ġà¤²à¤ĺ":919,"à¤ķà¤¦":920,"à¤¥à¤¨":921,"ed":922,"à¤°à¤¤à¤¦":923,"à¤ĸà¤°":924,"Ġà¤®à¤¨à¤¸":925,"à¤§à¤¯":926,"à¥§":927,"à¤·à¤°":928,"à¤¯à¤Ĺ":929,"à¤°à¤£à¤®":930,"à¤Ĺà¤³":931,"à¤¦à¤µ":932,"th":933,"Ġà¤Ńà¤ķ":934,"Ġà¤īà¤ªà¤°":935,"à¤ªà¤¶":936,"à¤Ĺà¤ª":937,"Ġà¤µà¤¨":938,"à¤§à¤ķ":939,"Ġà¤¨à¤°":940,"à¤£à¤¯":941,"à¤¹à¤ª":942,"à¤Ĺà¤£à¤¨":943,"ia":944,"Ġà¤¹à¤¸":945,"à¤°à¤²":946,"Ġà¤¤à¤¨":947,"Ġà¤Ńà¤Ĺà¤µ":948,"à¤°à¤¬":949,"ww":950,"à¤°à¤·":951,"à¤ĥà¥¤à¥¤":952,"à¤²à¤Ļ":953,"à¥įâĢĻ":954,"Ġ1000":955,"Ġà¤ĩà¤ļ":956,"à¤ĩà¤¤":957,"à¤°à¤¥":958,"à¤ľà¤ķ":959,"à¤¯à¤¤à¤®":960,"à¤¬à¤Ī":961,"à¤£à¤µ":962,"Ġàª":963,"Ġà¤ħà¤ªà¤°":964,"à¤£à¤ķ":965,"Ġà¤Ĺà¤°":966,"Ġà¤ļà¤°":967,"Ġà¤īà¤¨":968,"à¤Ĺà¤¢":969,"Ġà¤®à¤¯":970,"à¥į.":971,"Ġà¤°à¤ļà¤¨":972,"à¤¨à¤¡":973,"on":974,"Ġà¤ªà¤ł":975,"à¤°à¤®à¤¸":976,"à¤°à¤Ļ":977,"Ġà¤ļà¤ķ":978,"à¤°à¤¤à¤®":979,"Ġ20":980,"es":981,"er":982,"à²":983,"à¤¥à¤ķ":984,"à¤®à¤ľ":985,"à¤¡à¤¨":986,"an":987,"à¤¯à¤µà¤¹":988,"à¤Ŀ":989,"à¤ľà¤ª":990,"Ġà¤¶à¤¤":991,"à¤¸à¤¦":992,"201":993,"Ġ!":994,"Ġà¤®à¤°":995,"Ġà¤Ĩà¤µà¤¶":996,"à¤µà¤¦à¤¤":997,"Ġà¤«à¤²":998,"à¤¯à¤¥":999,"tp":1000,"à¤ļà¤®":1001,"à¤¤à¤Ń":1002,"Ġà¤¨à¤µ":1003,"Ġ30":1004,"à¤µà¤£":1005,"à¤¯à¤ļ":1006,"Ġà¤¸à¤¸":1007,"ic":1008,"Ġ25":1009,"à¤ªà¤ŀ":1010,"à¤£à¤Ń":1011,"at":1012,"à¤µà¤¯à¤®":1013,"à¥į...":1014,"en":1015,"//":1016,"://":1017,"http":1018,"à¤®à¤¶":1019,"Ġà¤¬à¤¨":1020,"à¤¶à¤¦":1021,"à¤ľà¤¤":1022,"Ġà¤ķà¤°à¤£":1023,"à¤¨à¤®à¤¨":1024,"à¤¾à¤ĥà¥¤":1025,"à¤Łà¤¸":1026,"à¤ķà¤¶":1027,"à¤īà¤¤":1028,"Ġà¤Ĩà¤ļà¤°":1029,"Ġà¤ħà¤Ńà¤µà¤¨":1030,"Ġà¤°à¤ļ":1031,"à¥©":1032,"à¤Ĺà¤µ":1033,"or":1034,"à¤µà¤¨à¤¸":1035,"à¤¨à¤¶":1036,"à¤®à¤Ĺ":1037,"à¤²à¤ļ":1038,"à¤Ńà¤¯":1039,"à¤µà¤¸à¤¨":1040,"à¤°à¤¦à¤¤":1041,"is":1042,"à¤ªà¤¯à¤¤":1043,"Ġà¤īà¤ªà¤¨":1044,"à¤¾.":1045,"à¤¿âĢĿ":1046,"à¤¥à¤²à¤®":1047,"à¤¤à¤²":1048,"Ġà¤Ĺà¤Ļ":1049,"Ġà¤µà¤ķ":1050,"à¤µà¤Ĺ":1051,"à¥ª":1052,"à¤ħà¤¯":1053,"à¤µà¤¸à¤°":1054,"Ġ24":1055,"Ġ26":1056,"à¤łà¤¤":1057,"Ġ50":1058,"Ġà¤°à¤¸":1059,"à¤µà¤ļ":1060,"Ġà¤¸à¤¹à¤¸":1061,"àª¾":1062,"Ġ40":1063,"à¤¶à¤µ":1064,"Ġ/":1065,"Ġà¥¤à¥¤":1066,"Ġ27":1067,"à¤¯à¤§":1068,"2011":1069,"à¤°à¤³":1070,"Ġ21":1071,"à¤ªà¤·":1072,"Ġà¤ħà¤µà¤¶":1073,"Ġ22":1074,"à¤¯à¤®à¤¨":1075,"Ġ60":1076,"à¤ħà¤¤":1077,"Ġà¤Ĩà¤°à¤®":1078,"à¤²à¤¬":1079,"Ġ35":1080,"à¤°à¤¶à¤¸":1081,"Ġà¤Ĩà¤µ":1082,"Ġ23":1083,"Ġ28":1084,"000":1085,"à¤£à¤ª":1086,"Ġà¤ĵà¤¡":1087,"Ġà¤ħà¤¯à¤®":1088,"à¤¡à¤¸":1089,"à¤¯à¤ķà¤°":1090,"à¤¨à¤®à¤¸":1091,"Ġà¤ľà¤Ĺà¤¤":1092,"à¥¨":1093,"à¤ķà¤¯":1094,"Ġà¤¬à¤²":1095,"à¤Łà¤ķà¤¸":1096,"à¤Łà¤°à¤®":1097,"Ġà¤Ĭ":1098,"à¤£à¤¦":1099,"Ġà¤µà¤¸à¤¨":1100,"Ġà¤¸à¤®à¤¸":1101,"à¤·à¤£à¤®":1102,"it":1103,"Ġ32":1104,"Ġà¤īà¤·":1105,"à¤ľà¤µ":1106,"Ġà¤¸à¤°à¤²":1107,"Ġà¤ħà¤µà¤¦à¤¤":1108,"à¤ľà¤Ĺ":1109,"à¤£à¤¤":1110,"Ġà¤ıà¤µà¤®":1111,"Ġ29":1112,"à¤¤à¤¨à¤®":1113,"Ġà¤¸à¤Ń":1114,"à¤¯à¤Ł":1115,"à¤¶à¤Ļ":1116,"Ġ80":1117,"à¤¤à¤°à¤¦":1118,"Ġ100":1119,"à¤¡à¤µ":1120,"Ġà¤Ĩà¤¨à¤¨":1121,"Ġà¤ĩà¤®":1122,"Ġ70":1123,"à¤ĸà¤¨":1124,"op":1125,"à¤ķà¤¸à¤Ń":1126,"à¤ĭ":1127,"Ġà¤īà¤ªà¤¸":1128,"à¤¾'":1129,"à¤Ńà¤Ĺ":1130,"à¤°à¤¸à¤Ļ":1131,"Ġ45":1132,"à¤µà¤¹":1133,"à¤¡à¤ķ":1134,"Ġà¤ħà¤¥à¤µ":1135,"à¤ĺà¤¨":1136,"à¤¦à¤¯à¤¸":1137,"ËĲ":1138,"à¤¯à¤²":1139,"à¤µà¤°à¤¸":1140,"à¤ļà¤¸":1141,"Ġà¤²à¤Ń":1142,"à¤ħà¤°":1143,"à¤¶à¤¨à¤®":1144,"à¤²à¤Ĺ":1145,"Ġà¤ĩà¤¯":1146,"à¤¯à¤¤à¤®à¤®":1147,"Ġà¤µà¤¦à¤¨":1148,"om":1149,"Ġ75":1150,"Ġ36":1151,"à¤¸à¤¨à¤®":1152,"à¤·à¤°à¤¤":1153,"Ġà¤®à¤¦":1154,"à¤ĸà¤¤":1155,"à¤ĸà¤¨à¤Ĺà¤°":1156,"à¤Ĺà¤¶":1157,"Ġ55":1158,"Ġ90":1159,"Ġà¤ªà¤Ł":1160,"à¤Ĺà¤ļ":1161,"Ġ72":1162,"Ġ31":1163,"à¤½à¤¨":1164,"à¤¿...":1165,"Ġ65":1166,"à¤·à¤ª":1167,"à¤¯à¤ľà¤¨":1168,"Ġà¤Ĩà¤ķà¤°":1169,"à¤¤à¤¥":1170,"à¤½à¤¯":1171,"Ġ39":1172,"à¤¿:":1173,"Ġ42":1174,"à¥ĩ-":1175,"Ġ33":1176,"Ġ71":1177,"Ġ500":1178,"Ġà¤¸à¤¦à¤¸":1179,"à¤¶à¤¬":1180,"Ġ34":1181,"Ġ64":1182,"Ġ37":1183,"Ġ38":1184,"à¤®à¤ķà¤°":1185,"Ġ56":1186,"à¤µà¤§":1187,"à¤¥à¤¯":1188,"Ġà¤°à¤¤":1189,"Ġà¤¹à¤¨":1190,"à¤¯à¤ķà¤¤":1191,"Ġ61":1192,"Ġ66":1193,"Ġ2011":1194,"Ġà¤µà¤¯":1195,"à¤ĸà¤®":1196,"Ġ62":1197,"Ġ44":1198,"à¤·à¤£à¤¸":1199,"Ġ54":1200,"Ġ250":1201,"Ġ52":1202,"à¤¯à¤®à¤¸":1203,"Ġ46":1204,"Ġ47":1205,"Ġà¤Ŀ":1206,"Ġ68":1207,"à¤Ĺà¤¯":1208,"Ġ41":1209,"Ġ43":1210,"à¤§à¤¨à¤®":1211,"Ġ63":1212,"Ġ150":1213,"à¤ĩà¤¨":1214,"Ġ78":1215,"Ġ48":1216,"à¤¸à¤ª":1217,"à¤ľà¤¯à¤¨":1218,"Ġ51":1219,"à¤®à¤¶à¤ķ":1220,"à¤¾...":1221,"à¤²à¤¦":1222,"Ġ57":1223,"Ġ300":1224,"Ġ58":1225,"Ġ79":1226,"Ġà¤Ńà¤Ĺà¤µà¤¦":1227,"Ġà¤ħà¤Ĺà¤ļ":1228,"Ġ49":1229,"Ġ53":1230,"à¤·à¤¯à¤¤":1231,"Ġ400":1232,"end":1233,"Ġ59":1234,"à¥ĢâĢĿ":1235,"Ġ67":1236,"Ġ77":1237,"Ġà¤¶à¤Ļ":1238,"Ġ2010":1239,"Ġ76":1240,"à¤¶à¤¨à¤¸":1241,"Ġà¤¤à¤¦à¤¨à¤¨":1242,"Ġ69":1243,"Ġà¤¦à¤¶":1244,"à¤¨à¤¸à¤Ń":1245,"Ġ82":1246,"Ġ600":1247,"Ġ73":1248,"Ġ95":1249,"Ġ360":1250,"Ġ140":1251,"à¤ķà¤¥":1252,"Ġ85":1253,"à¤¡à¤ª":1254,"à¤²à¤¨à¤¸":1255,"Ġ84":1256,"à¤¡à¤°":1257,"à¤Łà¤²":1258,"Ġ74":1259,"à¤°à¤ĸ":1260,"edia":1261,"Ġà¤µà¤¦à¤¤":1262,"Ġ1500":1263,"Ġ108":1264,"Ġ81":1265,"Ġà¤ļà¤²à¤ļ":1266,"Ġà¤ĩà¤¦à¤®":1267,"à¤¯à¤¸à¤®":1268,"of":1269,"Ġ86":1270,"Ġ120":1271,"Ġà¤ħà¤¸à¤®":1272,"Ġ89":1273,"Ġ88":1274,"Ġà¤·à¤¡":1275,"Ġ900":1276,"and":1277,"à¤ĺà¤Ł":1278,"Ġ83":1279,"Ġà¤Ĩà¤ľ":1280,"Ġ93":1281,"à¤°à¤¸à¤®":1282,"Ġ92":1283,"Ġ2012":1284,"am":1285,"Ġ130":1286,"à¤²à¤Ĺà¤£à¤¨":1287,"Ġ224":1288,"Ġ160":1289,"Ġ110":1290,"Ġ135":1291,"Ġ640":1292,"Ġà¤Ĳà¤¤":1293,"à¤¤à¤°à¤ª":1294,"à¤¾âĢĿ":1295,"Ġà¤ķà¤ª":1296,"Ġ1192":1297,"à¤¯à¤ªà¤°":1298,"Ġ800":1299,"Ġ1400":1300,"Ġ700":1301,"Ġ203":1302,"Ġ87":1303,"Ġ96":1304,"à¥ģà¤ĥ,":1305,"Ġ1200":1306,"Ġ180":1307,"Ġ450":1308,"Ġ1820":1309,"Ġ163":1310,"Ġ1800":1311,"àª°":1312,"Ġà¤ĸà¤£":1313,"à¥Ĭ":1314,"Ġ1818":1315,"Ġà¤ªà¤°à¤¸":1316,"Ġ98":1317,"Ġ320":1318,"Ġà¤ıà¤¤à¤¦":1319,"Ġ125":1320,"à¤¡à¤®":1321,"Ġ1835":1322,"Ġ1537":1323,"à¤¨à¤¨à¤Ĺà¤°":1324,"à¤§à¤ª":1325,"à¥Ģà¤ĥ":1326,"Ġ97":1327,"Ġ157":1328,"Ġ750":1329,"Ġ105":1330,"Ġ91":1331,"Ġ210":1332,"Ġ106":1333,"Ġ1803":1334,"Cal":1335,"Ġ480":1336,"Ġ290":1337,"Ġ208":1338,"Ġ114":1339,"Ġ94":1340,"Ġ1799":1341,"Ġ190":1342,"à¤ģ":1343,"Ġ185":1344,"opedia":1345,"Ġ101":1346,"Ġ142":1347,"à¤²à¤°":1348,"Ġ215":1349,"Ġ205":1350,"Ġ182":1351,"Ġ207":1352,"Ġ116":1353,"endopedia":1354,"Calendopedia":1355,"Ġ122":1356,"Ġ112":1357,"Ġ170":1358,"Ġ113":1359,"Ġ144":1360,"Ġ1833":1361,"Ġà¤¸à¤°à¤¦":1362,"Ġ270":1363,"Ġ350":1364,"Ġ117":1365,"à¥ĩ...":1366,"Ġ235":1367,"Ġ145":1368,"Ġ1817":1369,"Ġ230":1370,"Ġ240":1371,"Ġ1757":1372,"à¤°à¤¹à¤¸":1373,"Ġ251":1374,"Ġ99":1375,"Ġ1190":1376,"Ġ1819":1377,"Ġ269":1378,"Ġ602":1379,"Ġ1249":1380,"Ġ1191":1381,"Ġ175":1382,"Ġ1498":1383,"à¤·à¤¨":1384,"Ġà¤µà¤ļà¤¨":1385,"Ġ242":1386,"Ġ147":1387,"Ġ198":1388,"Ġ319":1389,"Ġ1300":1390,"Ġ299":1391,"Ġ305":1392,"Ġ370":1393,"Ġ152":1394,"Ġ375":1395,"Ġ104":1396,"Ġ107":1397,"Ġ158":1398,"Ġ326":1399,"Ġ126":1400,"Ġ173":1401,"Ġ177":1402,"Ġ193":1403,"Ġ195":1404,"Ġà¤ªà¤£":1405,"Ġ297":1406,"Ġ325":1407,"à¤¹à¤¦":1408,"Ġ217":1409,"Ġ280":1410,"Ġ119":1411,"Ġ139":1412,"Ġ550":1413,"Ġ544":1414,"Ġ686":1415,"Ġ1050":1416,"Ġ1182":1417,"Ġ148":1418,"Ġ155":1419,"Ġ137":1420,"Ġà¤¨à¤¨":1421,"Ġ255":1422,"Ġ1028":1423,"Ġ172":1424,"Ġ179":1425,"Ġ1592":1426,"Ġ1826":1427,"Ġth":1428,"Ġ395":1429,"Ġ434":1430,"Ġ129":1431,"Ġ1226":1432,"Ġ1600":1433,"Ġ138":1434,"Ġ1836":1435,"à¤¯à¤Łà¤¨à¤¸":1436,"Ġ218":1437,"Ġ471":1438,"Ġ1791":1439,"Ġà¤¤à¤µ":1440,"Ġ237":1441,"Ġ258":1442,"Ġ291":1443,"Ġ368":1444,"Ġ1565":1445,"Ġ186":1446,"Ġ233":1447,"Ġ244":1448,"Ġ259":1449,"Ġ310":1450,"Ġ132":1451,"Ġ197":1452,"Ġ369":1453,"Ġ420":1454,"Ġ103":1455,"Ġ1150":1456,"Ġ168":1457,"Ġ225":1458,"Ġ234":1459,"Ġ379":1460,"Ġ660":1461,"Ġ1058":1462,"Ġ880":1463,"Ġ1225":1464,"Ġ1177":1465,"Ġ1760":1466,"Ġ1780":1467,"Ġ1751":1468,"Ġ151":1469,"Ġ183":1470,"Ġ1831":1471,"Ġ192":1472,"Ġ221":1473,"Ġ285":1474,"Ġ345":1475,"Ġ588":1476,"Ġ1235":1477,"Ġ1687":1478,"Ġ184":1479,"Ġ1801":1480,"Ġ212":1481,"Ġ260":1482,"Ġ335":1483,"Ġ382":1484,"Ġ598":1485,"Ġ603":1486,"Ġ171":1487,"Ġ165":1488,"Ġ1412":1489,"Ġ194":1490,"Ġ216":1491,"Ġ229":1492,"Ġ232":1493,"Ġ245":1494,"Ġ328":1495,"Ġ322":1496,"Ġ341":1497,"Ġ649":1498,"Ġ115":1499,"Ġ178":1500,"Ġ1707":1501,"Ġ1761":1502,"Ġ1675":1503,"Ġ153":1504,"Ġ134":1505,"Ġ213":1506,"Ġ306":1507,"Ġ741":1508,"Ġ1759":1509,"Ġ1821":1510,"Ġà¤Ĩà¤Ĺà¤ļ":1511,"Ġ226":1512,"Ġ236":1513,"Ġ265":1514,"Ġ254":1515,"Ġ253":1516,"Ġ268":1517,"Ġ380":1518,"Ġ352":1519,"Ġ430":1520,"Ġ707":1521,"Ġ109":1522,"Ġ950":1523,"Ġ1248":1524,"Ġ118":1525,"Ġ1178":1526,"Ġ162":1527,"Ġ156":1528,"Ġ189":1529,"Ġ1816":1530,"Ġ1809":1531,"à¤½à¤Ń":1532,"Ġ214":1533,"Ġ470":1534,"Ġ650":1535,"Ġ102":1536,"Ġ1026":1537,"Ġ128":1538,"Ġ1700":1539,"Ġ1790":1540,"Ġ1784":1541,"Ġ1638":1542,"Ġ1545":1543,"Ġ133":1544,"Ġ204":1545,"Ġ361":1546,"Ġ625":1547,"Ġ927":1548,"Ġ972":1549,"Ġ1100":1550,"Ġ1724":1551,"Ġ1772":1552,"Ġ161":1553,"Ġ1460":1554,"Ġ1370":1555,"Ġ1815":1556,"Ġ199":1557,"Ġ206":1558,"Ġ287":1559,"Ġ288":1560,"Ġ374":1561,"Ġ425":1562,"Ġ473":1563,"Ġ642":1564,"Ġ632":1565,"Ġ960":1566,"Ġ127":1567,"Ġ1778":1568,"Ġ1674":1569,"Ġ1556":1570,"Ġ1570":1571,"Ġ275":1572,"Ġ329":1573,"Ġ432":1574,"Ġ1015":1575,"Ġ829":1576,"Ġ1230":1577,"Ġ1732":1578,"Ġ1792":1579,"Ġ167":1580,"Ġ1639":1581,"Ġ141":1582,"Ġ1411":1583,"Ġ1316":1584,"Ġ1330":1585,"Ġ1349":1586,"Ġ1830":1587,"Ġ1829":1588,"Ġ249":1589,"Ġ356":1590,"Ġ415":1591,"Ġ726":1592,"Ġ1239":1593,"Ġ1280":1594,"Ġ1737":1595,"Ġ1770":1596,"Ġ1774":1597,"Ġ1604":1598,"Ġ1814":1599,"Ġ1822":1600,"Ġ238":1601,"Ġ330":1602,"Ġ340":1603,"Ġ365":1604,"Ġ458":1605,"Ġ459":1606,"Ġ512":1607,"Ġ587":1608,"Ġ753":1609,"Ġ915":1610,"Ġ1471":1611,"Ġ1540":1612,"Ġ1325":1613,"Ġ187":1614,"Ġ220":1615,"Ġ227":1616,"Ġ202":1617,"Ġ264":1618,"Ġ277":1619,"Ġ336":1620,"Ġ388":1621,"Ġ529":1622,"Ġ654":1623,"Ġ668":1624,"Ġ770":1625,"Ġ123":1626,"Ġ1250":1627,"Ġ1244":1628,"Ġ1175":1629,"Ġ1176":1630,"Ġ1750":1631,"Ġ1573":1632,"Ġ1837":1633,"Ġ1834":1634,"Ġ262":1635,"Ġ294":1636,"Ġ313":1637,"Ġ309":1638,"Ġ394":1639,"Ġ520":1640,"Ġ545":1641,"Ġ638":1642,"Ġ646":1643,"Ġ714":1644,"Ġ1060":1645,"Ġ857":1646,"Ġ1122":1647,"Ġ1735":1648,"Ġ1704":1649,"Ġ1626":1650,"Ġ1672":1651,"Ġ146":1652,"Ġ1526":1653,"Ġ1538":1654,"Ġ1350":1655,"Ġ196":1656,"à¤·à¤Ń":1657,"Ġ222":1658,"Ġ292":1659,"Ġ293":1660,"Ġ311":1661,"Ġ303":1662,"Ġ347":1663,"Ġ377":1664,"Ġ393":1665,"Ġ479":1666,"Ġ536":1667,"Ġ560":1668,"Ġ631":1669,"Ġ663":1670,"Ġ717":1671,"Ġ788":1672,"Ġ1017":1673,"Ġ1030":1674,"Ġ1069":1675,"Ġ850":1676,"Ġ855":1677,"Ġ124":1678,"Ġ1234":1679,"Ġ1205":1680,"Ġ1748":1681,"Ġ1781":1682,"Ġ1631":1683,"Ġ1605":1684,"Ġ1660":1685,"Ġ1480":1686,"Ġ1514":1687,"Ġ1590":1688,"Ġ131":1689,"Ġ1825":1690,"Ġ1808":1691,"Ġà¤¨à¤µà¤®":1692,"Ġ286":1693,"Ġ312":1694,"Ġ302":1695,"Ġ348":1696,"Ġ438":1697,"Ġ494":1698,"Ġ504":1699,"Ġ610":1700,"Ġ670":1701,"Ġ797":1702,"Ġ1014":1703,"Ġ1066":1704,"Ġ1063":1705,"Ġ874":1706,"Ġ1130":1707,"Ġ174":1708,"Ġ176":1709,"Ġ1756":1710,"Ġ169":1711,"Ġ1650":1712,"Ġ1648":1713,"Ġ1449":1714,"Ġ1593":1715,"Ġ1371":1716,"Ġ181":1717,"Ġ1810":1718,"Ġ1842":1719,"Ġ1802":1720,"Ġ267":1721,"Ġ273":1722,"Ġ271":1723,"Ġ301":1724,"Ġ390":1725,"Ġ359":1726,"Ġ371":1727,"Ġ413":1728,"Ġ403":1729,"Ġ499":1730,"Ġ523":1731,"Ġ556":1732,"Ġ549":1733,"Ġ574":1734,"Ġ629":1735,"Ġ605":1736,"Ġ702":1737,"Ġ1098":1738,"Ġ890":1739,"Ġ1211":1740,"Ġ1228":1741,"Ġ1236":1742,"Ġ1270":1743,"Ġ1110":1744,"Ġ1116":1745,"Ġ1124":1746,"Ġ1167":1747,"Ġ1661":1748,"Ġ1499":1749,"Ġ1455":1750,"Ġ1494":1751,"Ġ159":1752,"Ġ1586":1753,"Ġ1582":1754,"Ġ1390":1755,"Ġ1378":1756,"Ġà¤¦à¤£":1757,"Ġ1840":1758,"Ġ1838":1759,"Ġ191":1760,"Ġ211":1761,"Ġ321":1762,"Ġ399":1763,"Ġ398":1764,"Ġ421":1765,"Ġ427":1766,"Ġ437":1767,"Ġ467":1768,"Ġ446":1769,"Ġ532":1770,"Ġ577":1771,"Ġ715":1772,"Ġ739":1773,"Ġ765":1774,"Ġ841":1775,"Ġ1158":1776,"Ġ1163":1777,"Ġ1745":1778,"Ġ1765":1779,"Ġ1752":1780,"Ġ1620":1781,"Ġ1642":1782,"Ġ1653":1783,"Ġ1501":1784,"Ġ1555":1785,"Ġ1388":1786,"Ġ1828":1787,"Ġ296":1788,"Ġ266":1789,"Ġ323":1790,"Ġ332":1791,"Ġ384":1792,"Ġ447":1793,"Ġ462":1794,"Ġ541":1795,"Ġ505":1796,"Ġ551":1797,"Ġ648":1798,"Ġ667":1799,"Ġ740":1800,"Ġ777":1801,"Ġ794":1802,"Ġ801":1803,"Ġ980":1804,"Ġ970":1805,"Ġ121":1806,"Ġ1238":1807,"Ġ1731":1808,"Ġ1734":1809,"Ġ1753":1810,"Ġ1636":1811,"Ġ1678":1812,"Ġ149":1813,"Ġ1469":1814,"Ġ1512":1815,"Ġ209":1816,"Ġ247":1817,"Ġ257":1818,"Ġ261":1819,"Ġ339":1820,"Ġ343":1821,"Ġ372":1822,"Ġ423":1823,"Ġ492":1824,"Ġ455":1825,"Ġ476":1826,"Ġ514":1827,"Ġ570":1828,"Ġ601":1829,"Ġ651":1830,"Ġ684":1831,"Ġ722":1832,"Ġ738":1833,"Ġ704":1834,"Ġ760":1835,"Ġ862":1836,"Ġ947":1837,"Ġ954":1838,"Ġ995":1839,"Ġ1196":1840,"Ġ1183":1841,"Ġ1723":1842,"Ġ1764":1843,"Ġ1744":1844,"Ġ1762":1845,"Ġ1794":1846,"Ġ1673":1847,"Ġ1513":1848,"Ġ1542":1849,"Ġ1599":1850,"Ġ1576":1851,"Ġ1326":1852,"Ġ1824":1853,"Ġ1839":1854,"Ġ228":1855,"Ġ223":1856,"Ġ318":1857,"Ġ327":1858,"Ġ342":1859,"Ġ491":1860,"Ġ498":1861,"Ġ527":1862,"Ġ503":1863,"Ġ580":1864,"Ġ561":1865,"Ġ609":1866,"Ġ748":1867,"Ġ815":1868,"Ġ860":1869,"Ġ896":1870,"Ġ988":1871,"Ġ981":1872,"Ġ1220":1873,"Ġ1212":1874,"Ġ1215":1875,"Ġ1207":1876,"Ġ1260":1877,"Ġ1290":1878,"Ġ1255":1879,"Ġ1135":1880,"Ġ1194":1881,"Ġ1179":1882,"Ġ1727":1883,"Ġ1733":1884,"Ġ1706":1885,"Ġ1773":1886,"Ġ1601":1887,"Ġ1632":1888,"Ġ1484":1889,"Ġ1591":1890,"Ġ1571":1891,"Ġ1568":1892,"Ġ1578":1893,"Ġ1585":1894,"Ġ1340":1895,"Ġ1805":1896,"Ġ298":1897,"Ġ278":1898,"Ġ279":1899,"Ġ314":1900,"Ġ304":1901,"Ġ357":1902,"Ġ364":1903,"Ġ396":1904,"Ġ436":1905,"Ġ439":1906,"Ġ460":1907,"Ġ463":1908,"Ġ519":1909,"Ġ540":1910,"Ġ506":1911,"Ġ614":1912,"Ġ645":1913,"Ġ699":1914,"Ġ655":1915,"Ġ725":1916,"Ġ705":1917,"Ġ703":1918,"Ġ787":1919,"Ġ1018":1920,"Ġ1040":1921,"Ġ1027":1922,"Ġ1080":1923,"Ġ1052":1924,"Ġ870":1925,"Ġ923":1926,"Ġ1252":1927,"Ġ111":1928,"Ġ1728":1929,"Ġ1722":1930,"Ġ1741":1931,"Ġ1775":1932,"Ġ1783":1933,"Ġ166":1934,"Ġ1616":1935,"Ġ1640":1936,"Ġ1606":1937,"Ġ1690":1938,"Ġ1655":1939,"Ġ1417":1940,"Ġ1454":1941,"Ġ1552":1942,"Ġ1334":1943,"Ġ1832":1944,"Ġ346":1945,"Ġ354":1946,"Ġ440":1947,"Ġ461":1948,"Ġ576":1949,"Ġ627":1950,"Ġ690":1951,"Ġ698":1952,"Ġ730":1953,"Ġ747":1954,"Ġ743":1955,"Ġ771":1956,"Ġ1045":1957,"Ġ1055":1958,"Ġ1008":1959,"Ġ1085":1960,"Ġ824":1961,"Ġ823":1962,"Ġ918":1963,"Ġ929":1964,"Ġ945":1965,"Ġ975":1966,"Ġ989":1967,"Ġ1219":1968,"Ġ1241":1969,"Ġ1243":1970,"Ġ1132":1971,"Ġ1157":1972,"Ġ1758":1973,"Ġ1754":1974,"Ġ164":1975,"Ġ1625":1976,"Ġ1656":1977,"Ġ1667":1978,"Ġ1664":1979,"Ġ1685":1980,"Ġ1681":1981,"Ġ1421":1982,"Ġ1437":1983,"Ġ1475":1984,"Ġ1444":1985,"Ġ1486":1986,"Ġ1516":1987,"Ġ1541":1988,"Ġ1567":1989,"Ġ1544":1990,"Ġ1380":1991,"Ġ1351":1992,"Ġ1813":1993,"Ġ1827":1994,"Ġ334":1995,"Ġ338":1996,"Ġ344":1997,"Ġ482":1998,"Ġ501":1999,"Ġ531":2000,"Ġ507":2001,"Ġ590":2002,"Ġ592":2003,"Ġ569":2004,"Ġ582":2005,"Ġ593":2006,"Ġ618":2007,"Ġ637":2008,"Ġ606":2009,"Ġ746":2010,"Ġ1090":2011,"Ġ1077":2012,"Ġ810":2013,"Ġ827":2014,"Ġ802":2015,"Ġ858":2016,"Ġ894":2017,"Ġ949":2018,"Ġ964":2019,"Ġ978":2020,"Ġ1201":2021,"Ġ1233":2022,"Ġ1246":2023,"Ġ1259":2024,"Ġ1736":2025,"Ġ1749":2026,"Ġ1798":2027,"Ġ1610":2028,"Ġ1611":2029,"Ġ1665":2030,"Ġ1692":2031,"Ġ1677":2032,"Ġ1669":2033,"Ġ1671":2034,"Ġ1401":2035,"Ġ1414":2036,"Ġ1428":2037,"Ġ1458":2038,"Ġ1510":2039,"Ġ1520":2040,"Ġ1531":2041,"Ġ1577":2042,"Ġ1553":2043,"Ġ1319":2044,"Ġ1328":2045,"Ġ1307":2046,"Ġ1811":2047,"Ġ1823":2048,"Ġ241":2049,"Ġ246":2050,"Ġ274":2051,"Ġ315":2052,"Ġ307":2053,"Ġ363":2054,"Ġ373":2055,"Ġ386":2056,"Ġ383":2057,"Ġ412":2058,"Ġ428":2059,"Ġ454":2060,"Ġ496":2061,"Ġ466":2062,"Ġ542":2063,"Ġ509":2064,"Ġ597":2065,"Ġ565":2066,"Ġ599":2067,"Ġ554":2068,"Ġ508":2069,"Ġ619":2070,"Ġ620":2071,"Ġ628":2072,"Ġ633":2073,"Ġ607":2074,"Ġ691":2075,"Ġ644":2076,"Ġ666":2077,"Ġ672":2078,"Ġ662":2079,"Ġ671":2080,"Ġ682":2081,"Ġ723":2082,"Ġ735":2083,"Ġ706":2084,"Ġ762":2085,"Ġ784":2086,"Ġ1025":2087,"Ġ1038":2088,"Ġ1074":2089,"Ġ813":2090,"Ġ840":2091,"Ġ856":2092,"Ġ897":2093,"Ġ859":2094,"Ġ866":2095,"Ġ912":2096,"Ġ933":2097,"Ġ942":2098,"Ġ1232":2099,"Ġ1297":2100,"Ġ1291":2101,"Ġ1251":2102,"Ġ1278":2103,"Ġ1293":2104,"Ġ1120":2105,"Ġ1156":2106,"Ġ1143":2107,"Ġ1189":2108,"Ġ1720":2109,"Ġ1730":2110,"Ġ1729":2111,"Ġ1739":2112,"Ġ1796":2113,"Ġ1769":2114,"Ġ1787":2115,"Ġ1766":2116,"Ġ1771":2117,"Ġ1708":2118,"Ġ1614":2119,"Ġ1630":2120,"Ġ1623":2121,"Ġ1635":2122,"Ġ1657":2123,"Ġ1645":2124,"Ġ1668":2125,"Ġ1686":2126,"Ġ1608":2127,"Ġ1420":2128,"Ġ1430":2129,"Ġ1457":2130,"Ġ1451":2131,"Ġ1495":2132,"Ġ154":2133,"Ġ1530":2134,"Ġ1528":2135,"Ġ1533":2136,"Ġ1536":2137,"Ġ1549":2138,"Ġ1579":2139,"Ġ1312":2140,"Ġ1346":2141,"Ġ1364":2142,"Ġ1369":2143,"Ġ1384":2144,"Ġ1382":2145,"Ġ239":2146,"Ġ252":2147,"Ġ272":2148,"Ġ282":2149,"Ġ358":2150,"Ġ362":2151,"Ġ407":2152,"Ġ443":2153,"Ġ444":2154,"Ġ525":2155,"Ġ572":2156,"Ġ626":2157,"Ġ643":2158,"Ġ733":2159,"Ġ734":2160,"Ġ732":2161,"Ġ757":2162,"Ġ799":2163,"Ġ786":2164,"Ġ1016":2165,"Ġ1042":2166,"Ġ1049":2167,"Ġ1076":2168,"Ġ830":2169,"Ġ835":2170,"Ġ838":2171,"Ġ875":2172,"Ġ888":2173,"Ġ895":2174,"Ġ907":2175,"Ġ982":2176,"Ġ908":2177,"Ġ1213":2178,"Ġ1227":2179,"Ġ1267":2180,"Ġ1128":2181,"Ġ1133":2182,"Ġ1145":2183,"Ġ1161":2184,"Ġ1159":2185,"Ġ1195":2186,"Ġ1710":2187,"Ġ1726":2188,"Ġ1703":2189,"Ġ1767":2190,"Ġ1793":2191,"Ġ1612":2192,"Ġ1628":2193,"Ġ1680":2194,"Ġ1644":2195,"Ġ1651":2196,"Ġ1682":2197,"Ġ1439":2198,"Ġ1489":2199,"Ġ1527":2200,"Ġ1509":2201,"Ġ1580":2202,"Ġ1595":2203,"Ġ1356":2204,"Ġ1806":2205,"Ġ=":2206,"Ġ248":2207,"Ġ283":2208,"Ġ316":2209,"Ġ324":2210,"Ġ397":2211,"Ġ391":2212,"Ġ387":2213,"Ġ366":2214,"Ġ411":2215,"Ġ422":2216,"Ġ433":2217,"Ġ406":2218,"Ġ452":2219,"Ġ453":2220,"Ġ486":2221,"Ġ408":2222,"Ġ510":2223,"Ġ528":2224,"Ġ522":2225,"Ġ535":2226,"Ġ596":2227,"Ġ553":2228,"Ġ589":2229,"Ġ630":2230,"Ġ656":2231,"Ġ696":2232,"Ġ685":2233,"Ġ729":2234,"Ġ790":2235,"Ġ744":2236,"Ġ763":2237,"Ġ776":2238,"Ġ1013":2239,"Ġ1031":2240,"Ġ1075":2241,"Ġ1065":2242,"Ġ1062":2243,"Ġ1071":2244,"Ġ820":2245,"Ġ817":2246,"Ġ814":2247,"Ġ822":2248,"Ġ833":2249,"Ġ803":2250,"Ġ884":2251,"Ġ868":2252,"Ġ885":2253,"Ġ930":2254,"Ġ925":2255,"Ġ928":2256,"Ġ958":2257,"Ġ977":2258,"Ġ996":2259,"Ġ973":2260,"Ġ1214":2261,"Ġ1224":2262,"Ġ1240":2263,"Ġ1229":2264,"Ġ1258":2265,"Ġ1253":2266,"Ġ1287":2267,"Ġ1266":2268,"Ġ1112":2269,"Ġ1113":2270,"Ġ1137":2271,"Ġ1142":2272,"Ġ1102":2273,"Ġ1160":2274,"Ġ1180":2275,"Ġ1153":2276,"Ġ1162":2277,"Ġ1715":2278,"Ġ1747":2279,"Ġ1788":2280,"Ġ1617":2281,"Ġ1670":2282,"Ġ1683":2283,"Ġ143":2284,"Ġ1424":2285,"Ġ1440":2286,"Ġ1405":2287,"Ġ1406":2288,"Ġ1450":2289,"Ġ1465":2290,"Ġ1468":2291,"Ġ1479":2292,"Ġ1524":2293,"Ġ1547":2294,"Ġ1558":2295,"Ġ1554":2296,"Ġ1320":2297,"Ġ1324":2298,"Ġ1368":2299,"Ġà¤®à¤²":2300,"Ġ219":2301,"Ġ231":2302,"Ġ256":2303,"Ġ243":2304,"Ġ263":2305,"Ġ281":2306,"Ġ333":2307,"Ġ337":2308,"Ġ349":2309,"Ġ367":2310,"Ġ378":2311,"Ġ308":2312,"Ġ418":2313,"Ġ414":2314,"Ġ477":2315,"Ġ487":2316,"Ġ468":2317,"Ġ530":2318,"Ġ524":2319,"Ġ502":2320,"Ġ575":2321,"Ġ564":2322,"Ġ559":2323,"Ġ584":2324,"Ġ579":2325,"Ġ585":2326,"Ġ622":2327,"Ġ636":2328,"Ġ634":2329,"Ġ675":2330,"Ġ665":2331,"Ġ653":2332,"Ġ687":2333,"Ġ688":2334,"Ġ608":2335,"Ġ701":2336,"Ġ720":2337,"Ġ712":2338,"Ġ775":2339,"Ġ767":2340,"Ġ1010":2341,"Ġ1023":2342,"Ġ1021":2343,"Ġ1035":2344,"Ġ1033":2345,"Ġ1097":2346,"Ġ1094":2347,"Ġ1078":2348,"Ġ1093":2349,"Ġ836":2350,"Ġ806":2351,"Ġ807":2352,"Ġ845":2353,"Ġ851":2354,"Ġ854":2355,"Ġ871":2356,"Ġ917":2357,"Ġ936":2358,"Ġ904":2359,"Ġ991":2360,"Ġ953":2361,"Ġ971":2362,"Ġ986":2363,"Ġ1210":2364,"Ġ1218":2365,"Ġ1216":2366,"Ġ1222":2367,"Ġ1206":2368,"Ġ1209":2369,"Ġ1296":2370,"Ġ1295":2371,"Ġ1119":2372,"Ġ1117":2373,"Ġ1123":2374,"Ġ1121":2375,"Ġ1106":2376,"Ġ1109":2377,"Ġ1197":2378,"Ġ1166":2379,"Ġ1174":2380,"Ġ1173":2381,"Ġ1181":2382,"Ġ1712":2383,"Ġ1763":2384,"Ġ1795":2385,"Ġ1776":2386,"Ġ1789":2387,"Ġ1637":2388,"Ġ1691":2389,"Ġ1652":2390,"Ġ1663":2391,"Ġ1694":2392,"Ġ1415":2393,"Ġ1425":2394,"Ġ1452":2395,"Ġ1488":2396,"Ġ1472":2397,"Ġ1485":2398,"Ġ1519":2399,"Ġ1525":2400,"Ġ1502":2401,"Ġ1596":2402,"Ġ1569":2403,"Ġ1559":2404,"Ġ1588":2405,"Ġ1589":2406,"Ġ1311":2407,"Ġ1336":2408,"Ġ1360":2409,"Ġ1358":2410,"Ġ1365":2411,"Ġ284":2412,"Ġ295":2413,"Ġ276":2414,"Ġ317":2415,"Ġ392":2416,"Ġ351":2417,"Ġ355":2418,"Ġ353":2419,"Ġ376":2420,"Ġ381":2421,"Ġ426":2422,"Ġ435":2423,"Ġ431":2424,"Ġ409":2425,"Ġ448":2426,"Ġ449":2427,"Ġ497":2428,"Ġ490":2429,"Ġ485":2430,"Ġ518":2431,"Ġ516":2432,"Ġ513":2433,"Ġ557":2434,"Ġ543":2435,"Ġ566":2436,"Ġ563":2437,"Ġ664":2438,"Ġ669":2439,"Ġ695":2440,"Ġ679":2441,"Ġ681":2442,"Ġ719":2443,"Ġ710":2444,"Ġ716":2445,"Ġ713":2446,"Ġ792":2447,"Ġ796":2448,"Ġ1020":2449,"Ġ1012":2450,"Ġ1022":2451,"Ġ1007":2452,"Ġ1046":2453,"Ġ1051":2454,"Ġ1088":2455,"Ġ826":2456,"Ġ828":2457,"Ġ852":2458,"Ġ861":2459,"Ġ869":2460,"Ġ863":2461,"Ġ876":2462,"Ġ919":2463,"Ġ910":2464,"Ġ997":2465,"Ġ976":2466,"Ġ1202":2467,"Ġ1261":2468,"Ġ1273":2469,"Ġ1284":2470,"Ġ1294":2471,"Ġ1283":2472,"Ġ1279":2473,"Ġ1125":2474,"Ġ1127":2475,"Ġ1131":2476,"Ġ1105":2477,"Ġ1107":2478,"Ġ1165":2479,"Ġ1164":2480,"Ġ1198":2481,"Ġ1188":2482,"Ġ1701":2483,"Ġ1718":2484,"Ġ1714":2485,"Ġ1713":2486,"Ġ1721":2487,"Ġ1746":2488,"Ġ1755":2489,"Ġ1768":2490,"Ġ1786":2491,"Ġ1785":2492,"Ġ1619":2493,"Ġ1618":2494,"Ġ1624":2495,"Ġ1602":2496,"Ġ1609":2497,"Ġ1658":2498,"Ġ1649":2499,"Ġ1654":2500,"Ġ1696":2501,"Ġ1659":2502,"Ġ1666":2503,"Ġ1688":2504,"Ġ1662":2505,"Ġ1418":2506,"Ġ1413":2507,"Ġ1423":2508,"Ġ1422":2509,"Ġ1433":2510,"Ġ1403":2511,"Ġ1448":2512,"Ġ1443":2513,"Ġ1470":2514,"Ġ1487":2515,"Ġ1517":2516,"Ġ1529":2517,"Ġ1550":2518,"Ġ1560":2519,"Ġ1548":2520,"Ġ1546":2521,"Ġ1587":2522,"Ġ1566":2523,"Ġ1563":2524,"Ġ1572":2525,"Ġ1594":2526,"Ġ1581":2527,"Ġ1310":2528,"Ġ1315":2529,"Ġ1313":2530,"Ġ1323":2531,"Ġ1329":2532,"Ġ1337":2533,"Ġ1305":2534,"Ġ1347":2535,"Ġ1343":2536,"Ġ1387":2537,"Ġ1308":2538,"Ġ1379":2539,"Ġ1841":2540,"Ġ1804":2541,"Ġ1807":2542,"Ġ289":2543,"Ġ331":2544,"Ġ385":2545,"Ġ401":2546,"Ġ410":2547,"Ġ417":2548,"Ġ416":2549,"Ġ424":2550,"Ġ429":2551,"Ġ405":2552,"Ġ404":2553,"Ġ484":2554,"Ġ533":2555,"Ġ538":2556,"Ġ591":2557,"Ġ546":2558,"Ġ555":2559,"Ġ578":2560,"Ġ613":2561,"Ġ659":2562,"Ġ683":2563,"Ġ724":2564,"Ġ728":2565,"Ġ731":2566,"Ġ1019":2567,"Ġ1002":2568,"Ġ1004":2569,"Ġ1086":2570,"Ġ1079":2571,"Ġ812":2572,"Ġ865":2573,"Ġ899":2574,"Ġ843":2575,"Ġ864":2576,"Ġ872":2577,"Ġ883":2578,"Ġ935":2579,"Ġ934":2580,"Ġ941":2581,"Ġ905":2582,"Ġ902":2583,"Ġ906":2584,"Ġ999":2585,"Ġ961":2586,"Ġ955":2587,"Ġ968":2588,"Ġ983":2589,"Ġ1221":2590,"Ġ1204":2591,"Ġ1247":2592,"Ġ1245":2593,"Ġ1275":2594,"Ġ1263":2595,"Ġ1199":2596,"Ġ1151":2597,"Ġ1172":2598,"Ġ1186":2599,"Ġ1185":2600,"Ġ1716":2601,"Ġ1725":2602,"Ġ1782":2603,"Ġ1627":2604,"Ġ1634":2605,"Ġ1697":2606,"Ġ1698":2607,"Ġ1689":2608,"Ġ1427":2609,"Ġ1402":2610,"Ġ1447":2611,"Ġ1445":2612,"Ġ1497":2613,"Ġ1467":2614,"Ġ1446":2615,"Ġ1490":2616,"Ġ1523":2617,"Ġ1522":2618,"Ġ1597":2619,"Ġ1301":2620,"Ġ1339":2621,"Ġ1341":2622,"Ġ1309":2623,"Ġ1399":2624,"Ġ1377":2625,"Ġ1396":2626,"Ġ1353":2627,"Ġ1366":2628,"Ġ188":2629,"à¤¾à¥¤à¥¤":2630,"Ġ389":2631,"Ġ419":2632,"Ġ442":2633,"Ġ441":2634,"Ġ402":2635,"Ġ457":2636,"Ġ456":2637,"Ġ445":2638,"Ġ475":2639,"Ġ465":2640,"Ġ464":2641,"Ġ451":2642,"Ġ469":2643,"Ġ488":2644,"Ġ474":2645,"Ġ472":2646,"Ġ478":2647,"Ġ483":2648,"Ġ495":2649,"Ġ493":2650,"Ġ489":2651,"Ġ481":2652,"Ġ511":2653,"Ġ515":2654,"Ġ517":2655,"Ġ526":2656,"Ġ521":2657,"Ġ537":2658,"Ġ534":2659,"Ġ539":2660,"Ġ547":2661,"Ġ548":2662,"Ġ558":2663,"Ġ567":2664,"Ġ552":2665,"Ġ573":2666,"Ġ562":2667,"Ġ571":2668,"Ġ568":2669,"Ġ586":2670,"Ġ594":2671,"Ġ583":2672,"Ġ595":2673,"Ġ581":2674,"Ġ611":2675,"Ġ612":2676,"Ġ615":2677,"Ġ617":2678,"Ġ616":2679,"Ġ624":2680,"Ġ623":2681,"Ġ621":2682,"Ġ635":2683,"Ġ639":2684,"Ġ641":2685,"Ġ604":2686,"Ġ647":2687,"Ġ657":2688,"Ġ658":2689,"Ġ680":2690,"Ġ697":2691,"Ġ652":2692,"Ġ692":2693,"Ġ661":2694,"Ġ677":2695,"Ġ674":2696,"Ġ673":2697,"Ġ694":2698,"Ġ678":2699,"Ġ676":2700,"Ġ693":2701,"Ġ689":2702,"Ġ718":2703,"Ġ711":2704,"Ġ721":2705,"Ġ727":2706,"Ġ737":2707,"Ġ736":2708,"Ġ742":2709,"Ġ709":2710,"Ġ756":2711,"Ġ758":2712,"Ġ745":2713,"Ġ749":2714,"Ġ780":2715,"Ġ791":2716,"Ġ752":2717,"Ġ764":2718,"Ġ798":2719,"Ġ761":2720,"Ġ751":2721,"Ġ755":2722,"Ġ754":2723,"Ġ769":2724,"Ġ759":2725,"Ġ766":2726,"Ġ774":2727,"Ġ772":2728,"Ġ773":2729,"Ġ768":2730,"Ġ782":2731,"Ġ778":2732,"Ġ783":2733,"Ġ795":2734,"Ġ708":2735,"Ġ779":2736,"Ġ793":2737,"Ġ785":2738,"Ġ789":2739,"Ġ781":2740,"Ġ1001":2741,"Ġ1011":2742,"Ġ1024":2743,"Ġ1029":2744,"Ġ1037":2745,"Ġ1036":2746,"Ġ1034":2747,"Ġ1032":2748,"Ġ1039":2749,"Ġ1041":2750,"Ġ1005":2751,"Ġ1006":2752,"Ġ1003":2753,"Ġ1009":2754,"Ġ1047":2755,"Ġ1057":2756,"Ġ1056":2757,"Ġ1048":2758,"Ġ1091":2759,"Ġ1067":2760,"Ġ1099":2761,"Ġ1092":2762,"Ġ1043":2763,"Ġ1064":2764,"Ġ1044":2765,"Ġ1061":2766,"Ġ1070":2767,"Ġ1054":2768,"Ġ1096":2769,"Ġ1053":2770,"Ġ1059":2771,"Ġ1087":2772,"Ġ1072":2773,"Ġ1073":2774,"Ġ1084":2775,"Ġ1068":2776,"Ġ1082":2777,"Ġ1083":2778,"Ġ1095":2779,"Ġ1089":2780,"Ġ1081":2781,"Ġ819":2782,"Ġ818":2783,"Ġ811":2784,"Ġ816":2785,"Ġ825":2786,"Ġ821":2787,"Ġ837":2788,"Ġ842":2789,"Ġ831":2790,"Ġ834":2791,"Ġ832":2792,"Ġ839":2793,"Ġ805":2794,"Ġ804":2795,"Ġ809":2796,"Ġ847":2797,"Ġ848":2798,"Ġ849":2799,"Ġ891":2800,"Ġ867":2801,"Ġ846":2802,"Ġ892":2803,"Ġ898":2804,"Ġ844":2805,"Ġ877":2806,"Ġ853":2807,"Ġ887":2808,"Ġ873":2809,"Ġ886":2810,"Ġ882":2811,"Ġ878":2812,"Ġ808":2813,"Ġ879":2814,"Ġ893":2815,"Ġ889":2816,"Ġ881":2817,"Ġ901":2818,"Ġ911":2819,"Ġ920":2820,"Ġ914":2821,"Ġ916":2822,"Ġ913":2823,"Ġ926":2824,"Ġ924":2825,"Ġ922":2826,"Ġ940":2827,"Ġ921":2828,"Ġ937":2829,"Ġ931":2830,"Ġ938":2831,"Ġ932":2832,"Ġ939":2833,"Ġ903":2834,"Ġ909":2835,"Ġ957":2836,"Ġ956":2837,"Ġ948":2838,"Ġ965":2839,"Ġ967":2840,"Ġ952":2841,"Ġ946":2842,"Ġ990":2843,"Ġ992":2844,"Ġ943":2845,"Ġ998":2846,"Ġ944":2847,"Ġ951":2848,"Ġ969":2849,"Ġ959":2850,"Ġ987":2851,"Ġ966":2852,"Ġ963":2853,"Ġ974":2854,"Ġ962":2855,"Ġ984":2856,"Ġ994":2857,"Ġ979":2858,"Ġ993":2859,"Ġ985":2860,"Ġ1217":2861,"Ġ1223":2862,"Ġ1237":2863,"Ġ1242":2864,"Ġ1231":2865,"Ġ1203":2866,"Ġ1257":2867,"Ġ1256":2868,"Ġ1265":2869,"Ġ1299":2870,"Ġ1292":2871,"Ġ1264":2872,"Ġ1298":2873,"Ġ1277":2874,"Ġ1254":2875,"Ġ1269":2876,"Ġ1288":2877,"Ġ1274":2878,"Ġ1272":2879,"Ġ1262":2880,"Ġ1271":2881,"Ġ1268":2882,"Ġ1286":2883,"Ġ1282":2884,"Ġ1208":2885,"Ġ1276":2886,"Ġ1285":2887,"Ġ1289":2888,"Ġ1281":2889,"Ġ1101":2890,"Ġ1118":2891,"Ġ1111":2892,"Ġ1115":2893,"Ġ1114":2894,"Ġ1126":2895,"Ġ1140":2896,"Ġ1129":2897,"Ġ1136":2898,"Ġ1134":2899,"Ġ1138":2900,"Ġ1139":2901,"Ġ1141":2902,"Ġ1104":2903,"Ġ1103":2904,"Ġ1147":2905,"Ġ1148":2906,"Ġ1149":2907,"Ġ1152":2908,"Ġ1146":2909,"Ġ1144":2910,"Ġ1155":2911,"Ġ1170":2912,"Ġ1154":2913,"Ġ1169":2914,"Ġ1187":2915,"Ġ1184":2916,"Ġ1171":2917,"Ġ1168":2918,"Ġ1108":2919,"Ġ1193":2920,"Ġ1719":2921,"Ġ1711":2922,"Ġ1717":2923,"Ġ1740":2924,"Ġ1742":2925,"Ġ1738":2926,"Ġ1705":2927,"Ġ1702":2928,"Ġ1709":2929,"Ġ1797":2930,"Ġ1743":2931,"Ġ1777":2932,"Ġ1779":2933,"Ġ1615":2934,"Ġ1613":2935,"Ġ1622":2936,"Ġ1621":2937,"Ġ1629":2938,"Ġ1633":2939,"Ġ1641":2940,"Ġ1607":2941,"Ġ1603":2942,"Ġ1647":2943,"Ġ1699":2944,"Ġ1646":2945,"Ġ1643":2946,"Ġ1684":2947,"Ġ1695":2948,"Ġ1679":2949,"Ġ1676":2950,"Ġ1693":2951,"Ġ1419":2952,"Ġ1410":2953,"Ġ1416":2954,"Ġ1426":2955,"Ġ1429":2956,"Ġ1435":2957,"Ġ1436":2958,"Ġ1442":2959,"Ġ1431":2960,"Ġ1434":2961,"Ġ1438":2962,"Ġ1432":2963,"Ġ1441":2964,"Ġ1404":2965,"Ġ1407":2966,"Ġ1409":2967,"Ġ1456":2968,"Ġ1491":2969,"Ġ1492":2970,"Ġ1464":2971,"Ġ1461":2972,"Ġ1477":2973,"Ġ1496":2974,"Ġ1453":2975,"Ġ1459":2976,"Ġ1466":2977,"Ġ1463":2978,"Ġ1474":2979,"Ġ1473":2980,"Ġ1462":2981,"Ġ1482":2982,"Ġ1478":2983,"Ġ1483":2984,"Ġ1408":2985,"Ġ1476":2986,"Ġ1493":2987,"Ġ1481":2988,"Ġ1518":2989,"Ġ1511":2990,"Ġ1515":2991,"Ġ1521":2992,"Ġ1535":2993,"Ġ1534":2994,"Ġ1532":2995,"Ġ1539":2996,"Ġ1505":2997,"Ġ1504":2998,"Ġ1506":2999,"Ġ1507":3000,"Ġ1503":3001,"Ġ1557":3002,"Ġ1575":3003,"Ġ1543":3004,"Ġ1564":3005,"Ġ1598":3006,"Ġ1561":3007,"Ġ1551":3008,"Ġ1574":3009,"Ġ1562":3010,"Ġ1584":3011,"Ġ1583":3012,"Ġ1318":3013,"Ġ1317":3014,"Ġ1314":3015,"Ġ1322":3016,"Ġ1321":3017,"Ġ1327":3018,"Ġ1335":3019,"Ġ1333":3020,"Ġ1342":3021,"Ġ1331":3022,"Ġ1338":3023,"Ġ1332":3024,"Ġ1302":3025,"Ġ1304":3026,"Ġ1306":3027,"Ġ1303":3028,"Ġ1357":3029,"Ġ1348":3030,"Ġ1345":3031,"Ġ1375":3032,"Ġ1397":3033,"Ġ1391":3034,"Ġ1367":3035,"Ġ1352":3036,"Ġ1392":3037,"Ġ1398":3038,"Ġ1344":3039,"Ġ1361":3040,"Ġ1355":3041,"Ġ1354":3042,"Ġ1359":3043,"Ġ1363":3044,"Ġ1374":3045,"Ġ1372":3046,"Ġ1373":3047,"Ġ1362":3048,"Ġ1386":3049,"Ġ1394":3050,"Ġ1383":3051,"Ġ1395":3052,"Ġ1376":3053,"Ġ1393":3054,"Ġ1385":3055,"Ġ1389":3056,"Ġ1381":3057,"Ġ1812":3058,"à¤¹à¤°à¤£":3059,"à¥įâĢĮ":3060,"à¤ľà¤¨à¤®":3061,"à¤°à¤®à¤¨":3062,"à¤īà¤¦":3063,"à¤¤à¤Ĺ":3064,"',":3065,"à¥ĭ-":3066,"Ġà¤ĩà¤£":3067,"Ġà¤¸à¤ķ":3068,"Ġà¤¦à¤¦":3069,"www":3070,"à¤ıà¤µ":3071,"à¤ħà¤¥":3072,"à¤°à¤Ńà¤¤":3073,"à¤ķà¤°à¤£à¤®":3074,"à¤¤à¤ľ":3075,"à¥¬":3076,"à¤ıà¤·":3077,"Ġà¤Ĺà¤¤à¤µ":3078,"à¤¨à¤Ń":3079,"à¥į\"":3080,"à¤ĵ":3081,"Ġà¤ıà¤ķà¤®":3082,"Ġà¤ıà¤ķà¤¤":3083,"Ġà¤ħà¤¯à¤ļ":3084,"à¤°à¤¸à¤¨":3085,"Éĳ":3086,"ÉĳËĲ":3087,"Ġà¤ıà¤¨":3088,"Ġà¤ķà¤£":3089,"à¤¨à¤¸à¤®":3090,"à¤µà¤²à¤®":3091,"Ġà¤ľà¤²à¤ª":3092,"Ġà¤·à¤·":3093,"à¤ªà¤µ":3094,"à¤¶à¤²":3095,"à¤ĥâĢĿ":3096,"Ġà¤¦à¤¶à¤ķ":3097,"à¤§à¤¯à¤¤":3098,"Ġà¤īà¤ªà¤®à¤£":3099,"ind":3100,"ĠĠĠĠĠĠĠĠ":3101,"à¤Ĺà¤¦à¤°":3102,"as":3103,"à¤Łà¤ķà¤°":3104,"à¤®à¤°à¤£":3105,"Ġà¤ªà¤µ":3106,"à¤¸à¤®à¤¯":3107,"Ġs":3108,"à¤¤à¤°à¤Ń":3109,"à¤µà¤ľà¤¨":3110,"à¤¨à¤Ĺ":3111,"Ġà¤ľà¤¯à¤ª":3112,"à¤łà¤¸":3113,"à¤¥à¤µ":3114,"à¤¸à¤²":3115,"âĢ¢":3116,"à¤¤à¤¨à¤¸":3117,"à¥ī.":3118,"Ġà¤ĭà¤Ĺ":3119,"Ġà¤ĳ":3120,"Ġà¤¶à¤¤à¤ķ":3121,"à¥ĩ.":3122,"Ġà¤ķà¤¥à¤¯à¤¤":3123,"Ġà¤ħà¤¹à¤®à¤¦":3124,"Ġà¤¸à¤®à¤Ĺ":3125,"à¤¯à¤¨à¤¸":3126,"à¤¯à¤ŀ":3127,"Ġà¤ªà¤²":3128,"à¤ķà¤£":3129,"Ġà¤ħà¤µà¤¸":3130,"Ġ2001":3131,"à¤µà¤¸à¤®":3132,"Ġthe":3133,"Â°":3134,"à¤¾âĢĻ":3135,"à¤²à¤¨à¤®":3136,"à¤ĺà¤¸":3137,"à¥«":3138,"à¤ĥ'":3139,"Ġà¤ħà¤ļ":3140,"Ġà¤ħà¤£":3141,"à¥Īà¤ĥ,":3142,"à¤½à¤§":3143,"Ġà¤®à¤°à¤£":3144,"Ġà¤µà¤²":3145,"Ġà¤¸à¤ľ":3146,"Ġà¤¯à¤¨":3147,"Ġà¤ħà¤µà¤°":3148,"Ġà¤¯à¤ļ":3149,"à¤ķà¤Ń":3150,"Ġà¤ķà¤ł":3151,"Ġà¤®à¤Ļ":3152,"à¤Łà¤¯":3153,"à¤¦à¤¯à¤¤":3154,"à¤·à¤§":3155,"à¤µà¤¨à¤®":3156,"à¤°à¤¤à¤¯":3157,"Ġà¤ħà¤²à¤Ļ":3158,"à¤ļà¤µ":3159,"à¤´":3160,"Ġà¤ķà¤®":3161,"ËĪ":3162,"à¥ĩà¥¤à¥¤":3163,"Ġà¤¤à¤ª":3164,"à¤¬à¤¸":3165,"Ġà¤Ĺà¤®":3166,"à¤ªà¤¯à¤¨":3167,"Ġà¤¤à¤Ł":3168,"ion":3169,"à¤ĸà¤¦":3170,"Ġof":3171,"à¤Ĺà¤µà¤¤":3172,"Ġà¤ľà¤¨à¤Ĺà¤£à¤¨":3173,"à¤°à¤¬à¤¨":3174,"à¤¯à¤Ļ":3175,"Ġà¤Ĩà¤®":3176,"Ġà¤¸à¤°à¤²à¤¤à¤¯":3177,"/)":3178,"Ġà¤ĩà¤¸":3179,"à¤¶à¤¤à¤ķ":3180,"à¤¯à¤¸à¤Ļ":3181,"à¤Ĺà¤®à¤¨":3182,"Ġà¤Ńà¤°à¤¤":3183,"Ġà¤ķà¤¤":3184,"Ġà¤¥":3185,"Ġà¤¤à¤®à¤µà¤°":3186,"Ġà¤¬à¤Ļ":3187,"à¤°à¤ķà¤²":3188,"à¤ħà¤¹":3189,"à¤¯à¤µà¤°":3190,"Ġà¤µà¤¯à¤¸":3191,"à¤ľà¤¨à¤¸":3192,"à¤°à¤µà¤¹à¤¤":3193,"à¤¸à¤¹":3194,"Ġà¤īà¤ªà¤¦":3195,"à¤Ńà¤¸":3196,"à¤·à¤µ":3197,"le":3198,"à¤Ĩà¤°":3199,"à¤ªà¤²":3200,"à¤ļà¤²à¤ª":3201,"à¤°à¤®à¤¹":3202,"à¤²à¤¶":3203,"à¤ıà¤¤":3204,"à¤ĸà¤ķ":3205,"Ġà¤¯à¤µà¤¨":3206,"à¤µà¤¤à¤¶":3207,"à¤ĸà¤²":3208,"à¤¬à¤¹":3209,"us":3210,"à¥Ģ'":3211,"à¤ľà¤¯à¤¤":3212,"à¤¸à¤°à¤¸":3213,"à¤°à¤ļà¤²à¤¤":3214,"Ġà¤ķà¤·":3215,"à¤Ńà¤°":3216,"à¤Łà¤ª":3217,"tr":3218,"com":3219,"Ġà¤¸à¤°à¤¸":3220,"à¤¹à¤£":3221,"Ġà¤ĸà¤²":3222,"à¤µà¤®à¤¨":3223,"à¤°à¤¯à¤¨":3224,"à¤ªà¤Ł":3225,"à¤ķà¤°à¤¸":3226,"à¤ķà¤°à¤£à¤¸":3227,"à¥Ń":3228,"à¤µà¤¸à¤¤":3229,"à¥ģà¤Ĥ-":3230,"ĠS":3231,"à¤·à¤ªà¤°":3232,"Ġà¤¹à¤¤":3233,"à¤ļà¤¯à¤¤":3234,"à¤ªà¤°à¤®":3235,"à¤¡à¤¶":3236,"Ġà¤Ĩà¤°à¤ķ":3237,"à¤¿'":3238,"à¤¸à¤¨à¤ķ":3239,"ur":3240,"âĢĺ":3241,"à¤¹à¤¨à¤¸":3242,"Ġà¤ķà¤¥à¤¯à¤¨":3243,"à¤¯à¤®à¤¹":3244,"à¤§à¤¨à¤¸":3245,"Ġà¤ľà¤²à¤¸":3246,"à¤łà¤¨":3247,":à¥¤":3248,"Ġà¤¶à¤¨":3249,"à¤¥à¤Ĺ":3250,"à¤ħà¤®":3251,"ch":3252,"âĢľ":3253,"à¥ĭ...":3254,"à¤ļà¤°à¤£":3255,"à¤¤à¤¨à¤§à¤°":3256,"Ġà¤ľà¤°":3257,"à¤¨à¤²":3258,"à¤¥à¤Ļ":3259,"à¤¯à¤¨à¤¯":3260,"Ġà¤ľà¤®":3261,"Ġà¤īà¤Ń":3262,"à¦":3263,"Ġà¤¨à¤®":3264,"à¤¤à¤°à¤¸":3265,"à¤¯à¤¬":3266,"à¤®à¤ļà¤°":3267,"Ġà¤°à¤µ":3268,"à¤īà¤ª":3269,"à¤ķà¤¤à¤¯":3270,"à¤½à¤¯à¤®":3271,"à¤¥à¤²à¤¸":3272,"à¤ĺà¤Łà¤¨":3273,"Ġà¤ĩà¤Ļ":3274,"à¤¤à¤µà¤°":3275,"à¤¯à¤¸à¤Ń":3276,"à¤¨à¤¤à¤®":3277,"à¤¯à¤ªà¤¦":3278,"à¤ļà¤²":3279,"à¤ļà¤¦à¤¶":3280,"à¤¶à¤¯à¤¤":3281,"à¤¹à¤ķ":3282,"Ġà¤Ĩà¤ļà¤°à¤¨":3283,"à¤®à¤¸à¤®":3284,"Ġà¤īà¤ªà¤µ":3285,"Ġà¤ĭà¤·":3286,"à¤°à¤ªà¤°":3287,"à¤°à¤®à¤ª":3288,"à¥į:":3289,"à«į":3290,"Ġà¤Ĺà¤¦":3291,"Ġà¤Ĩà¤Ń":3292,"à¤¿âĢĻ":3293,"Ġà¤ļà¤®":3294,"Ġà¤Ĩà¤ª":3295,"à¤Ĺà¤ķ":3296,"Ġà¤ħà¤¬":3297,"à¤®à¤¶à¤ķà¤Łà¤®":3298,"à¤°à¤®à¤¤":3299,"à¤·à¤·":3300,"à¤¤à¤ķà¤°":3301,"à¤®à¤ķà¤¸":3302,"à¤ĺà¤µ":3303,"à¤Ĺà¤ľ":3304,"à¤¯à¤®à¤ª":3305,"à¤ĩà¤¦":3306,"à¤¥à¤¶":3307,"à¥®":3308,"Ġà¤ħà¤µà¤¤":3309,"à¤ĸà¤¸":3310,"à¥Ħ":3311,"Ġà¤¤à¤ªà¤¸":3312,"Ġd":3313,"à¤ļà¤¨à¤®":3314,"à¤µà¤§à¤°":3315,"à¤ħà¤ª":3316,"à¤¸à¤¨à¤¸":3317,"à¤°à¤£à¤¤":3318,"à¤¿à¥¤à¥¤":3319,"Ġ,":3320,"Ġà¤Ĭà¤°":3321,"Ġà¤¯à¤®":3322,"Ġà¤īà¤ªà¤²à¤Ń":3323,"à¤ĺà¤°":3324,"à¤Ĺà¤Ļ":3325,"à¤®à¤£à¤¸":3326,"à¤¦à¤¨à¤®":3327,"ĠP":3328,"Ġt":3329,"Ġà¤¨à¤ķ":3330,"Ġà¤Ľà¤¨":3331,"Ġà¤ıà¤ķà¤¦":3332,"Ġà¤ħà¤¹à¤®":3333,"à¤ħà¤µ":3334,"à¤°à¤Ĺà¤¤":3335,"à¤¸à¤Ń":3336,"Ġà¤ľà¤¯":3337,"à¤ĥ...":3338,"à¤¤à¤®à¤µà¤°":3339,"à¤®à¤ļà¤¨":3340,"à¤ħà¤ķ":3341,"à¤ªà¤¦à¤®":3342,"Ġà¤¦à¤¶à¤®":3343,"à¤¾à¤ĥà¥¤à¥¤":3344,"Ġà¤ıà¤¸":3345,"à¤ĥâĢĻ":3346,"à¤½à¤¤":3347,"ing":3348,"à¤¸à¤¹à¤¸":3349,"à¤ķà¤ļ":3350,"Ġà¤¸à¤µ":3351,"Ġà¤¬à¤°":3352,"à¤°à¤ļà¤²à¤¨":3353,"à¤½à¤Ńà¤µà¤¤":3354,"à¥įâĢĿ,":3355,"à¤ķà¤ªà¤°":3356,"à¤²à¤ķà¤¸":3357,"à¤¥à¤ª":3358,"à¤Ĺà¤Ń":3359,"à¤¦à¤¨à¤¸":3360,"à¤Łà¤ķà¤¯":3361,"à¤°à¤£à¤¸":3362,"Ġà¤®à¤¤à¤®":3363,"à¤¦à¤¦":3364,"à¤µà¤°à¤£à¤®":3365,"à¤¤à¤¯à¤¤":3366,"Ġà¤ħà¤¥à¤°":3367,"Ġà¤¤à¤¦à¤¨":3368,"Ġà¤ĺà¤Łà¤¨":3369,"à¤°à¤ļà¤²":3370,"à¤ħà¤²":3371,"htm":3372,"Ġà¤ĩà¤·":3373,"Ġà¤²à¤¬":3374,"Ġà¤ıà¤²":3375,"à¤¿\"":3376,"Ġà¤Ńà¤Ł":3377,"à¤¸à¤ªà¤°":3378,"Ġà¤Ńà¤°":3379,"Ġà¤Ĩà¤«":3380,"à¤¯à¤£à¤¸":3381,"à¤Łà¤¤":3382,"à¥Ĩ":3383,"Ġà¤°à¤®à¤£":3384,"Ġà¤ł":3385,"à¤°à¤¹à¤£":3386,"à¤¤à¤°à¤¤":3387,"Ġà¤ļà¤£":3388,"àª¨":3389,"à¥ĢâĢĻ":3390,"Ġà¤Ĩà¤²":3391,"à¤¥à¤°":3392,"à¤ªà¤ª":3393,"Ġà¤¬à¤Ń":3394,"à¤ªà¤¦à¤µ":3395,"à¤ĭà¤Ĺ":3396,"Ġf":3397,"à¤¤à¤ļ":3398,"à¤²à¤¯à¤¤":3399,"à¤¤à¤®à¤®":3400,"Ġà¤ıà¤ķà¤µ":3401,"Ġà¤¤à¤¡":3402,"à¤ķà¤ľ":3403,"Ġà¤ªà¤łà¤¨":3404,"à¥ĭ,":3405,"Ġà¤ħà¤°à¤£":3406,"200":3407,"à¤¦à¤£":3408,"à¥Ĥ-":3409,"Ġw":3410,"à¤°à¤ķà¤Ł":3411,"Ġà¤ĳà¤«":3412,"à¥Ģà¥¤":3413,"Ġà¤ıà¤®":3414,"à¤¶à¤ª":3415,"à¤¯à¤¦à¤°":3416,"Ġà¤Ĩà¤¦à¤°":3417,"Ġà¤ľà¤²à¤µ":3418,"à¤ıà¤ķ":3419,"à¥į',":3420,"à¥ĩà¤Ĥ":3421,"à¤µà¤¥":3422,"à¤ªà¤¦à¤¸":3423,"Ġà¤¬à¤¦":3424,"à¤®à¤ļ":3425,"à¤µà¤Ļ":3426,"Ġà¤°à¤ĺ":3427,"à¤¾à¤ģ":3428,"à«ĩ":3429,"à¤¯à¤¨à¤¨":3430,"à¤Ĩà¤¶":3431,"Ġh":3432,"Ġà¤ħà¤¨à¤¯":3433,"Ġà¤ľà¤²à¤¬à¤¨":3434,"à¤·à¤¯à¤ķ":3435,"Ġà¤®à¤¹à¤°":3436,"à¤łà¤®":3437,"à¤£à¤°":3438,"Ġà¤Īà¤¸":3439,"à¤¡à¤Ĺ":3440,"Ġà¤Ĺà¤ľ":3441,"Ġà¤ľà¤¨à¤ľ":3442,"à¤ķà¤¸à¤®":3443,"Ġà¤īà¤ľ":3444,"ag":3445,"Ġà¤ªà¤¦à¤µ":3446,"à¤·à¤¶":3447,"à¤Ńà¤Ł":3448,"Ġà¤Ĩà¤¸à¤ķ":3449,"ÉĻm":3450,"à¤Ĺà¤£à¤°":3451,"à¤ªà¤²à¤¬":3452,"à¤ķà¤¸à¤Ļ":3453,"à¤§à¤§à¤°":3454,"à¤ħà¤Ń":3455,"à¤¦à¤§":3456,"à¤ľà¤²à¤ª":3457,"Ġà¤¯à¤¶":3458,"Ġà¤Ķà¤¨":3459,"à®":3460,"à¤¯à¤¸à¤°":3461,"ap":3462,"à¤ªà¤¥":3463,"à¤®à¤¹à¤°":3464,"ut":3465,"Ġà¤µà¤ľ":3466,"à¤µà¤¤à¤¸":3467,"ation":3468,"Ġà¤¶à¤¸":3469,"Ġà¤ľà¤Ĺà¤¦":3470,"à¤µà¤ļà¤¨":3471,"il":3472,"à¤¯à¤¤à¤¯":3473,"à¤ŀà¤¸":3474,"à¤¤à¤¸à¤°":3475,"à¤°à¤µà¤£":3476,"à³":3477,"à¤¨à¤§à¤°":3478,"Éª":3479,"à¥Ĳ":3480,"Ġà¤ľà¤ª":3481,"ĠB":3482,"à¤¦à¤Ĺ":3483,"à¤°à¤¤à¤¸à¤°":3484,"à«ĭ":3485,"à¤¯à¤¹":3486,"à¤Ĩà¤¤":3487,"à¤Ĺà¤°à¤¤":3488,"à¤¾à¤Ĥ...":3489,"Ġà¤ľà¤¨à¤µà¤°":3490,"à¤°à¤µà¤¹à¤¨":3491,"Ġà¤·à¤Ł":3492,"ac":3493,"Ġà¤®à¤²à¤¯":3494,"à¤µà¤¬":3495,"à¤·à¤£à¤ķ":3496,"à¤µà¤¨à¤¨":3497,"à¤Ĳ":3498,"Ġà¤Ńà¤¯":3499,"Ġà¤Ķà¤¦":3500,"à¤µà¤ķà¤°":3501,"Ġà¤µà¤Ļ":3502,"à¤²à¤¸à¤°":3503,"à¤¿à¤ĥà¥¤":3504,"re":3505,"ak":3506,"Ġà¤ħà¤µà¤§":3507,"à¤°à¤ªà¤¦":3508,"à¤Ńà¤¦":3509,"Ġand":3510,"Ġà¤ħà¤¸à¤®à¤°":3511,"à¤¬à¤²à¤ª":3512,"à¤®à¤ķà¤®":3513,"à¤¯à¤ķà¤®":3514,"Ġp":3515,"à¤®à¤¬":3516,"à¤¬à¤¤":3517,"à¤¤à¤°à¤ķ":3518,"à¤°à¤ľà¤¨":3519,"Ġà¤Ĩà¤°à¤Ń":3520,"à¥Ī,":3521,"india":3522,"à¤łà¤ķ":3523,"à¤¶à¤Ńà¤ķ":3524,"à¤¤à¤®à¤¨":3525,"ĠR":3526,"Ġc":3527,"Ġà¤¨à¤·":3528,":,":3529,"à¤Ĩà¤¨":3530,"à¤¨à¤ªà¤°":3531,"Ġà¤Ĩà¤¹à¤¤":3532,"à¤°à¤µà¤ļà¤¨":3533,"ĠA":3534,"à¤Ĭ":3535,"à¤¶à¤¶":3536,"Ġà¤®à¤¸":3537,"Ġà¤īà¤Ńà¤¯":3538,"Ġà¤¦à¤¶à¤°":3539,"à¤¯à¤ķà¤¸":3540,"à¤¦à¤¶à¤®":3541,"à¤ĥ\"":3542,"Ġà¤ħà¤µà¤¸à¤°":3543,"Ġà¤ĺà¤Ł":3544,"à¤¨à¤ļ":3545,"à¤µà¤¯à¤¤":3546,"à¤£à¤¶":3547,"Ġà¤°à¤®":3548,"Ġà¤°à¤Ļ":3549,"ĠI":3550,"à¤¹à¤µ":3551,"Ġà¤ħà¤°à¤¬":3552,"el":3553,"Ġà¤ķà¤¥à¤¨":3554,"à¤Ĩà¤§":3555,"à¤°à¤¹à¤°":3556,"à¤¢à¤µ":3557,"à¤°à¤¡":3558,"à¤łà¤ª":3559,"ad":3560,"ĠĠĊ":3561,"à¤°à¤®à¤¶":3562,"à¤¹à¤¯":3563,"à¤¸à¤ŀ":3564,"à¤µà¤¯à¤¨":3565,"à¤°à¤¥à¤®à¤µ":3566,"Ġà¤ĩà¤²":3567,"à«Ģ":3568,"à¤·à¤¯à¤¸":3569,"à¤·à¤¯à¤¨":3570,"à¤µà¤¤à¤ª":3571,"à¤¥à¤¯à¤¤":3572,"à¤°à¤¤à¤Ĺà¤£à¤°":3573,"Ġà¤ħà¤«":3574,"à¤°à¤®à¤£à¤®":3575,"ĠM":3576,"à¤®à¤ķà¤°à¤£":3577,"à¥Į,":3578,"à¤ľà¤¶":3579,"âĢĵ":3580,"à¤³à¤®":3581,"Ġà¤¸à¤®à¤¤":3582,"Ġà¤µà¤¸à¤¤":3583,"à¤¦à¤Ń":3584,"à¤¦à¤¯à¤¨":3585,"à¤®à¤¹à¤¤":3586,"à¤ķà¤Łà¤¤à¤®":3587,"iv":3588,"à¤ħà¤§":3589,"à¤ĤâĢĿ,":3590,"Ġà¤°à¤ľ":3591,"à¤¤à¤¸à¤®":3592,"Ġà¤īà¤ªà¤Ĺ":3593,"à¤Ĺà¤®à¤£":3594,"à¤Ĺà¤°à¤®à¤£":3595,"à¤µà¤¹à¤¨":3596,"Ġà¤ľà¤¹":3597,"à¤¡à¤¯":3598,"à¤ĺà¤£":3599,"ama":3600,"Ġà¤ªà¤¤à¤ŀ":3601,"à¤½à¤°":3602,"à¤¸à¤µà¤¸":3603,"Ġà¤ªà¤¦à¤¸":3604,"à¤łà¤¯":3605,"à¤¨à¤¡à¤Ń":3606,"Ġà¤°à¤ļà¤¯":3607,"Ġb":3608,"Ġà¤¤à¤¦à¤°":3609,"Ġto":3610,"html":3611,"à¤²à¤¯à¤¨":3612,"à¤°à¤¸à¤°":3613,"Ġà¤¬à¤¸":3614,"à¤¦à¤¸à¤°à¤¸":3615,"ts":3616,"Ġà¤®à¤Ĺ":3617,"à¤°à¤ķà¤°":3618,"à¤¦à¤¶à¤¶à¤¤":3619,"à¤µà¤ľà¤¸":3620,"à¤µà¤µà¤°":3621,"à¥į'-":3622,"à¥ģâĢĿ":3623,"à¤²à¤ľ":3624,"à¤¯à¤ľà¤¤":3625,"Ġà¤Ĩà¤ªà¤¤":3626,"Ġm":3627,"à¤¨à¤µà¤°":3628,"à¤¯à¤£à¤®":3629,"à¤¦à¤²":3630,"Ġà¤«à¤°":3631,"à¤°à¤ªà¤ŀ":3632,"à¤°à¤ŀ":3633,"à¤¯à¤°à¤¤":3634,"Ġà¤µà¤¨à¤µ":3635,"à¤ĺà¤ķ":3636,"à¤µà¤®à¤ª":3637,"Ġà¤ĩà¤ķ":3638,"à¤ĤâĢĿ":3639,"à¤¥à¤¤":3640,"ol":3641,"ĠC":3642,"Ġà¤ļà¤²à¤¨":3643,"Ġà¤µà¤¤":3644,"à¤§à¤¯à¤¨":3645,"à¤¯à¤µà¤¤":3646,"Ġà¤ħà¤µà¤ķ":3647,"Ġà¤Ĺà¤®à¤¨":3648,"à¤°à¤¤à¤¨":3649,"Ġà¤°à¤¹à¤¸":3650,"à¤¤à¤®à¤¹":3651,"à¤Ńà¤Ĺà¤µà¤¦":3652,"Ġà¤µà¤¶":3653,"Ġà¤¯à¤·":3654,"Ġà¤¹à¤µ":3655,"à¤¦à¤¶à¤µà¤°":3656,"Ġà¤Ķà¤·":3657,"Ġà¥Ĳ":3658,"à¤Ŀà¤°":3659,"Ġ:":3660,"Ġà¤ķà¤¬":3661,"à¤łà¤Ń":3662,"Ġà¤ľà¤¯à¤¨":3663,"à¤«à¤²à¤®":3664,"à¤Ĺà¤¡":3665,"Ġà¤¯à¤ķ":3666,"à¤µà¤¦à¤¨":3667,"Ġà¤ħà¤ĸ":3668,"Ġà¤¤à¤£":3669,"à¥Ī-":3670,"Ġà¤ħà¤Ł":3671,"Ġà¤ķà¤¥à¤®":3672,"à¤¶à¤ľ":3673,"âĢĻ-":3674,"à¥ĩ'":3675,"Ġ1947":3676,"Ġà¤ªà¤¨":3677,"à¥¯":3678,"à¤²à¤ªà¤°":3679,"Ġà¤¦à¤®":3680,"à¤¤à¤¤à¤¯":3681,"Ġ.":3682,"Ġà¤¸à¤«à¤²":3683,"à¤µà¤°à¤®":3684,"à¤¦à¤®à¤£":3685,"Ġà¤Ĺà¤£à¤¨":3686,"Ġà¤Ķà¤°à¤Ļ":3687,"àª¯":3688,"à¤£à¤¤à¤¯":3689,"ÊĬ":3690,"à¤µà¤¯à¤¸":3691,"Ġà¤ıà¤¤à¤¯":3692,"à¤ĩà¤¸":3693,"àª°àª":3694,"à¤ľà¤¦":3695,"Ġà¤ľà¤²à¤®":3696,"à¤ħà¤Ĺ":3697,"à¤ıà¤µà¤®":3698,"à¤¨à¤¹":3699,"Ġà¤²à¤£":3700,"à¤łà¤¤à¤¯":3701,"Ġà¤İ":3702,"Ġà¤ķà¤ļ":3703,"à¤°à¤¤à¤Ł":3704,"à¤ķà¤Ĺ":3705,"à¤¤à¤¡":3706,"Ġà¤īà¤°":3707,"à¤Ńà¤Ĺà¤µà¤¤":3708,"Ġà¤ħà¤®à¤°":3709,"à¤ĩà¤£":3710,"à¤ıà¤¤à¤¤":3711,"à¤¤à¤ªà¤°":3712,"à¤²à¤Ńà¤¤":3713,"à¤¨à¤µà¤¸":3714,"à¤§à¤¶":3715,"à¤¨à¤®à¤ª":3716,"Ġà¤Ľà¤¤":3717,"id":3718,"Ġà¤ľà¤Ĺà¤¨":3719,"à¤Ĺà¤¤à¤®":3720,"à¥¦":3721,"Ġà¤¤à¤ļ":3722,"à¤łà¤¶":3723,"à¤¤à¤ķà¤¸":3724,"à¤¤à¤°à¤£":3725,":à¥¤à¥¤":3726,"à¤°à¤¯à¤¸":3727,"Ġà¤Ķà¤·à¤§":3728,"à¤¯à¤¤à¤¤":3729,"à¤¯à¤Łà¤ķ":3730,"Ġà¤¸à¤®à¤¨":3731,"Ġà¤ľà¤¨à¤ķ":3732,"à¤°à¤ļà¤¨":3733,"âĢİ":3734,"à¤¤à¤°à¤Ļ":3735,"ĠâĢĶ":3736,"à¥Ģ'-":3737,"à¤°à¤¤à¤²":3738,"ens":3739,"à¤£à¤Ĺ":3740,"à¤ªà¤ķà¤²":3741,"à¤¸à¤¶":3742,"Ġà¤ķà¤ŀ":3743,"Ġà¤°à¤£":3744,"Ġ+":3745,"Ġà¤ħà¤ľà¤¯à¤®":3746,"à¤¤à¤®à¤ª":3747,"ĠâĢĿ":3748,"Ġà¤ħà¤Ĺà¤¸":3749,"Ġà¤ħà¤Ńà¤¯":3750,"à¤²à¤ķà¤®":3751,"Ġà¤Ńà¤Ĺà¤¤à¤¸":3752,"Ġà¤ĵà¤°":3753,"Ġà¤Ĩà¤Ĺà¤¤à¤µ":3754,"Ġà¤¸à¤²":3755,"à¤¬à¤°à¤®":3756,"à¤ħà¤·":3757,"à¤ľà¤¯à¤¸":3758,"Ġà¤¦à¤²":3759,"à¤²à¤®à¤£":3760,"Ġà¤¨à¤²":3761,"à¤¤à¤¯à¤¨":3762,"à¤Ĩà¤Ļ":3763,"à¤°à¤¥à¤®à¤¸":3764,"à¥Įà¥¤":3765,"hi":3766,"à¤Ĩà¤¯":3767,"à¤Łà¤¤à¤¯":3768,"à¤°à¤ķà¤®":3769,"Ġà¤²à¤Ńà¤¤":3770,"Ġà¤µà¤§":3771,"Ġà¤Ĩà¤ļà¤°à¤£":3772,"à¤¾à¤ĥ...":3773,"à¤ħà¤¶":3774,"à¤ľà¤¹":3775,"à¤ļà¤¨à¤¸":3776,"à¤¯à¤¤à¤¨":3777,"Ġà¤ıà¤£":3778,"à¤®à¤ªà¤°":3779,"à¤·à¤®à¤¤":3780,"Ġà¤¸à¤®à¤ķ":3781,"ĠT":3782,"à¤¨à¤ķà¤°":3783,"Ġà¤ıà¤¶":3784,"à¤Ĺà¤ªà¤°":3785,"Ġà¤īà¤ªà¤²à¤¬":3786,"à¤£à¤¨à¤®":3787,"....":3788,"àªĤ":3789,"Ġà¤ľà¤¨à¤ª":3790,"à¤Ĩà¤¸":3791,"Ġà¤ľà¤µ":3792,"Ġà¤°à¤¥":3793,"à¤ªà¤¹":3794,"àªķ":3795,"à¤¹à¤°à¤²":3796,"um":3797,"à¤ĥ-":3798,"à¤Īà¤ľ":3799,"à¤§à¤¨à¤ķ":3800,"et":3801,"à¤¤à¤¬":3802,"à¤°à¤¤à¤µà¤°":3803,"à¤°à¤®à¤µ":3804,"à¤¼à¥į":3805,"à¤ªà¤¤à¤ŀ":3806,"à¤ľà¤Ń":3807,"à¤ħà¤Ĺà¤¸":3808,"Ġà¤ĭà¤¤":3809,"à¤Ĺà¤®à¤¸":3810,"à¤§à¤¦":3811,"à¤¡à¤¤":3812,"ĉĊ":3813,"à¤¤à¤¦à¤¶":3814,"à¥ĢâĢĿ,":3815,"à¤²à¤µà¤²":3816,"Ġà¤Ńà¤¦":3817,"à¥Ī:":3818,"Ġà¤ľà¤Ĺ":3819,"à¤½à¤½":3820,"à¤¸à¤µà¤®":3821,"Ġà¤Ĩà¤°à¤Ńà¤¤":3822,"Ġà¤ħà¤¶à¤ķ":3823,"à¤Ńà¤®":3824,"à¤°à¤®à¤£à¤¸":3825,"Ġà¤īà¤¦à¤¯":3826,"Ġin":3827,"Ġ--":3828,"bh":3829,"à¤²à¤²":3830,"Ġà¤Īà¤¶à¤µ":3831,"ent":3832,"à¤ªà¤¤à¤¯":3833,"Ġà¤²à¤Ļ":3834,"Ġà¤®à¤¹à¤®":3835,"à¤Łà¤ķà¤®":3836,"Ġà¤ķà¤Ł":3837,"ou":3838,"à¤°à¤¬à¤²":3839,"Ġà¤ħà¤µà¤¹à¤¤":3840,"à¤°à¤µà¤¤":3841,"à¤ļà¤¤à¤¨":3842,"à¤¯à¤ķà¤²":3843,"à¤ľà¤²à¤¬à¤¨":3844,"à¥ĩâĢĿ":3845,"à¥ĩâĢĻ":3846,"à¤ħà¤¦":3847,"à¤µà¤µà¤²":3848,"Ġà¤ıà¤¤à¤¨":3849,"Ġà¤ľà¤¨à¤¤":3850,"à¤²à¤Ńà¤Ń":3851,"im":3852,"à¤¨à¤¤à¤¯":3853,"à¤µà¤¤à¤°":3854,"à¤³à¤Ĺ":3855,"à¤ķà¤ľà¤¨":3856,"à¤¼à¤¾":3857,"Ġà¤Ĩà¤Ĺà¤®":3858,"à¤¡à¤¦":3859,"Ġà¤īà¤¡":3860,"ra":3861,"Ġv":3862,"à¤®à¤°à¤¤":3863,"à¤§à¤®à¤¸":3864,"à¤¿à¤ĥ...":3865,"à¥Īà¤Ĥ":3866,"à¤¨à¤®à¤£":3867,"à¤µà¤¡":3868,"à¤ªà¤²à¤Ń":3869,"Ġà¤¸à¤ļ":3870,"à¤¯à¤¸à¤¨":3871,"ers":3872,"à¤ŀà¤¯":3873,"à¤°à¤¯à¤£":3874,"à¤¤à¤ķà¤®":3875,"Ġà¤ľà¤¨à¤¨":3876,"Ġàª¸":3877,"àª¤":3878,"ensus":3879,"à¤ķà¤¬":3880,"à¤°à¤£à¤¯":3881,"à¤¤à¤¨à¤ķ":3882,"Ġà¤ĸà¤¨":3883,"census":3884,"à¤ĥâĢĿ,":3885,"Ġà¤ħà¤°à¤µ":3886,"à¤°à¤¥à¤®à¤®":3887,"à¤®à¤ķà¤°à¤£à¤¸":3888,"à¤¨à¤ľ":3889,"à¤ļà¤°à¤¨":3890,"âĢ²":3891,"à¤°à¤®à¤®":3892,"à¤ªà¤¨à¤®":3893,"Ġà¤ķà¤ķ":3894,"Ġà¤Ĺà¤¹à¤¨":3895,"à¤²à¤Ńà¤Ł":3896,"Ġà¤¦à¤¶à¤°à¤¥":3897,"à¤¯à¤¨à¤®":3898,"à¤²à¤ªà¤ķ":3899,"à¤Ĺà¤¤à¤¸":3900,"à¥ĭ:":3901,"à¤¼à¥ĭ":3902,"Ġà¤®à¤¹à¤¦":3903,"Ġa":3904,"Ġà¤ĩà¤¯à¤®":3905,"à¥įà¥¥":3906,"à¤°à¤¯à¤®":3907,"Ġà¤¨à¤°à¤¸":3908,"à¤²à¤ķà¤¤":3909,"à¤ªà¤Ń":3910,"Ġà¤¤à¤²":3911,"Ġà¤®à¤¦à¤¨":3912,"Ġà¤¬à¤¸à¤µ":3913,"à¤½à¤¹":3914,"à¤¦à¤¶à¤¸":3915,"à¤ªà¤£à¤®":3916,"à¤£à¤µà¤°":3917,"à¤£à¤ķà¤Ł":3918,"Ġà¤Ĺà¤µ":3919,"nic":3920,"âĢĶ":3921,"Ġà¤µà¤¹":3922,"ÉĻl":3923,"à¤§à¤Ń":3924,"à¤Ĩà¤¦":3925,"à¤¸à¤¦à¤¸":3926,"à¤¦à¤ªà¤°":3927,"Ġà¤¯à¤¯":3928,"à¤®à¤¤à¤¤":3929,"à¤¶à¤¯à¤¨":3930,"à¤¹à¤°à¤£à¤®":3931,"Ġà¤¦à¤¯":3932,"à¤°à¤ķà¤¸":3933,"à¤¥à¤®à¤¨":3934,"à¥ĭà¤Ĥ":3935,"à¤¦à¤°à¤®":3936,"Ġà¤¸à¤ķà¤²":3937,"Ġà¤īà¤ªà¤®":3938,"Ġà¤ĩà¤Łà¤²":3939,"à¤¡à¤®à¤£":3940,"ay":3941,"à¤¬à¤¯":3942,"à¤µà¤°à¤ķà¤°":3943,"à¤µà¤£à¤¸":3944,"à¤«à¤²à¤¸":3945,"Ġà¤ĭà¤·à¤Ń":3946,"à¤¬à¤ķ":3947,"à¤Ĺà¤¤à¤µ":3948,"à¤µà¤¨à¤µ":3949,"Ġà¤²à¤²":3950,"à¤¯à¤¯à¤¨à¤®":3951,"Ġ%":3952,"à¤¸à¤ļ":3953,"à¤µà¤®à¤¸":3954,"Ġà¤ķà¤®à¤²":3955,"Ġ2000":3956,"à¤¹à¤¨à¤®":3957,"à¤ľà¤¯à¤ª":3958,"à¤µà¤°à¤ª":3959,"Ġà¤½":3960,"Ġà¤¶à¤°à¤£":3961,"à¤µà¤ªà¤²":3962,"à¤¨à¤°à¤¸":3963,"à¤ªà¤ļ":3964,"Ġn":3965,"à¤¾âĢĿ,":3966,"à¤µà¤¤à¤®":3967,"Ġà¤Ĩà¤Ĺà¤¤à¤®":3968,"co":3969,"à¤¹à¤°à¤¤":3970,"Ġà¤ıà¤ª":3971,"à¤Ķ":3972,"à¤®à¤£à¤®":3973,"à¤ľà¤¨à¤ľ":3974,"à¤µà¤ªà¤°":3975,"à¤¦à¤°à¤¸":3976,"à¤ıà¤¤à¤¸":3977,"Ġà²":3978,"Ġà¤ķà¤¦à¤²":3979,"Ġà¤ªà¤¥":3980,"Ġà¤ªà¤°à¤¶":3981,"Ġà¤®à¤¹à¤²":3982,"à¤¦à¤²à¤ķ":3983,"Ġà¤µà¤¯à¤®":3984,"Ġà¤ĭà¤ļ":3985,"à¤Ńà¤µà¤¨à¤®":3986,"Ġà¤ªà¤Łà¤¨":3987,"Ġà¤¨à¤µà¤¦":3988,"Ġà¤Ĩà¤ĸ":3989,"à¤¶à¤¨à¤²":3990,"Ġ2008":3991,"à¤·à¤µà¤°":3992,"à¤¯à¤®à¤¯":3993,"à¤Łà¤¦":3994,"à¤ıà¤²":3995,"à¤§à¤µà¤¨":3996,"à¤ħà¤ľ":3997,"ĠG":3998,"à¤¦à¤µà¤¨":3999,"à¤ªà¤ľ":4000,"à¤ıà¤¸":4001,"dis":4002,"à¤¤à¤¨à¤¤":4003,"àªľ":4004,"à¤¨à¤¦à¤°":4005,"Ġà¤Ĺà¤¤à¤µà¤¨":4006,"à¤°à¤¨à¤Ĺà¤°":4007,"Ġà¤ħà¤µà¤²":4008,"Ġà¤µà¤¨à¤¸":4009,"à¤¶à¤¤à¤®":4010,"ÉĻnd":4011,"Ġà¤µà¤¹à¤¨":4012,"à¤£à¤ªà¤ķ":4013,"ĠĠĠĠĠĠĠĠĠĠĠĠĠĠĠĠ":4014,"âĢ¦":4015,"à¤Łà¤µà¤¤":4016,"à¤¤à¤ŀ":4017,"Ġà¤¹à¤ľ":4018,"à¤°à¤µà¤¸":4019,"à¤°à¤ķà¤°à¤£":4020,"à¤£à¤¯à¤¤":4021,"à¤¹à¤Ĺ":4022,"Ġà¤«à¤²à¤®":4023,"à¤£à¤ľà¤¨":4024,"ĠH":4025,"Ġà¤¶à¤¤à¤®":4026,"à¤Ľà¤¯":4027,"à¤«à¤²à¤¤":4028,"Ġà¤ķà¤¥à¤¯":4029,"Ġà¤®à¤ķ":4030,"à¤ĩà¤Ł":4031,"Ġà¥¥'":4032,"à¤Ĺà¤ªà¤¤":4033,"Ġà¤ľà¤¨à¤¯à¤¤":4034,"à¤¤à¤ķà¤²":4035,"à¤ľà¤¨à¤ķ":4036,"à¤µà¤°à¤¦":4037,"à¥ł":4038,"à¤¯à¤Łà¤¨":4039,"Ġà¤¨à¤¶":4040,"à¥Ĥ.":4041,"à¤¨à¤¬":4042,"à¤ķà¤µà¤°":4043,"ow":4044,"à¤¯à¤µà¤¨":4045,"à¤ľà¤¯à¤¦à¤¶à¤®":4046,"Ġà¤¨à¤¯à¤¨":4047,"ĠL":4048,"Ġà¤¨à¤µà¤°":4049,"à¤µà¤°à¤ķ":4050,"Ġà¤¶à¤®":4051,"Ġà¤¸à¤¹à¤ķ":4052,"à¤ħà¤¥à¤°":4053,"oo":4054,"à¥ĩà¤ĥ,":4055,"à¤ªà¤³":4056,"à¤ıà¤ķà¤¦":4057,"à¤Ńà¤ľ":4058,"à¤·à¤ķà¤¸":4059,"Ġà¤µà¤¦":4060,"à¥Īà¤ĥà¥¤":4061,"à¤®à¤¹à¤²":4062,"Ġà¤¸à¤ĸ":4063,"Ġà¤«à¤°à¤µà¤°":4064,"tric":4065,"à¤¾\"":4066,"à¤Ńà¤¤":4067,"à¤¦à¤®à¤¨":4068,"à¤·à¤ľ":4069,"Ġà¤¦à¤¨":4070,"Ġà¤ħà¤ªà¤®":4071,"Ġà¤ħà¤ĸà¤£":4072,"Ġà¤ķà¤Łà¤ķ":4073,"à¤¬à¤°à¤¸":4074,"em":4075,"à¤¤à¤Ļ":4076,"Ġà¤¸à¤¹à¤ľ":4077,"Ġà¤µà¤¹à¤¤":4078,"Ġà¤īà¤µ":4079,"Ġà¤·à¤£":4080,"ev":4081,"Ġl":4082,"à¤ķà¤ªà¤¦":4083,"à¤ļà¤Ń":4084,"à¤·à¤¤à¤¯":4085,"à¤°à¤¤à¤ª":4086,"Ġà¤Ĩà¤Ĺà¤®à¤¨":4087,"à¤²à¤ĺ":4088,"à¤·à¤¯à¤®":4089,"Ġà¤ļà¤²à¤¤":4090,"à¤Ńà¤°à¤£":4091,"Ġà¤¸à¤®à¤µ":4092,"Ġà¤¸à¤¤à¤¤":4093,"à¤Ńà¤Ĺà¤µ":4094,"à¤ļà¤°à¤¤":4095,"à¥ģ\"":4096,"à¥ģâĢĻ":4097,"à¤·à¤£à¤ª":4098,"ri":4099,"à¤®à¤¬à¤Ļ":4100,"à¤¨à¤µà¤®":4101,"Ġà¤ħà¤µà¤²à¤®":4102,"Ġà¤®à¤ł":4103,"à¥Ĥ,":4104,"Ġ1960":4105,"Ġg":4106,"Ġà¤ªà¤¦à¤¯":4107,"Ġk":4108,"à¤ħà¤¨à¤¨":4109,"Ġà¤Īà¤¦":4110,"à¤¸à¤°à¤¦":4111,"à¤¶à¤ļà¤¤":4112,"à¤ıà¤®":4113,"à¤Ńà¤¨":4114,"à¤¨à¤¸à¤Ļ":4115,"à¤ķà¤°à¤®":4116,"à¤ķà¤¤à¤®":4117,"à¤Łà¤£":4118,"à¤ŀà¤¶":4119,"à¤ĺà¤®":4120,"à¤¶à¤Ń":4121,"à¤ļà¤µà¤°":4122,"à¤ªà¤µà¤°":4123,"à¤ļà¤¶":4124,"Ġà¤ľà¤¬à¤²à¤ª":4125,"à¤°à¤ĸà¤£":4126,"à¤Ńà¤µà¤®":4127,"Ġà¤ľà¤Ł":4128,"Ġà¤²à¤®":4129,"Ġhttp":4130,"à¤ķà¤·":4131,"à¤¦à¤¨à¤ķ":4132,"he":4133,"à¤ĸà¤ª":4134,"à¤®à¤Ļ":4135,"à¤²à¤¯à¤®":4136,"à¤½à¤¹à¤®":4137,"à¤¥à¤¦":4138,"Ġà¤ļà¤°à¤£":4139,"à¤¬à¤®":4140,"Ġà¤¯à¤¶à¤¸":4141,"ÉĻr":4142,"ir":4143,"Ġ)":4144,"à¤ŀà¤®":4145,"à¤¯à¤®à¤¤":4146,"à¤µà¤ķà¤®":4147,"indu":4148,"Ġà¤Ĺà¤Ń":4149,"ÉĽ":4150,"Ġà¤µà¤¡":4151,"à¤ľà¤¨à¤µà¤°":4152,"à¤ĩà¤®":4153,"à¤¸à¤Ĺà¤¢":4154,"à¤·à¤Ĺ":4155,"à¤®à¤£à¤Ĺ":4156,"à¤µà¤¹à¤£":4157,"os":4158,"Ġà¤µà¤¨à¤®":4159,"à¤Łà¤Ń":4160,"Ġà¤ļà¤¤à¤¸":4161,"à¤¸à¤°à¤£":4162,"à¥ĩ:":4163,"à¤¦à¤ļ":4164,"à¤«à¤°":4165,"à¤īà¤ļ":4166,"Ġà¤ħà¤ķà¤¥à¤¯à¤¤":4167,"ÉĻh":4168,"à¤ļà¤²à¤ļ":4169,"à¤¤à¤®à¤¤":4170,"Ġà¤Ńà¤Ĺà¤µà¤¨":4171,"à¤¢à¤®":4172,"à¤¯à¤®à¤£":4173,"à¤ªà¤Ĺ":4174,"à¤ħà¤ªà¤°":4175,"à¤®à¤¨à¤µà¤®":4176,"à¥ģà¤ĥà¥¤":4177,"à¤Ĺà¤µà¤¤à¤ª":4178,"Ġà¤¶à¤¶":4179,"à¤łà¤°":4180,"à¤¤à¤Ńà¤Ł":4181,"à¤ĥà¥¥":4182,"Ġà¤Ĩà¤Ĺà¤¨":4183,"Ġà¤ľà¤¨à¤ªà¤¦":4184,"ations":4185,"à¤ĩà¤¹":4186,"Ġà¤ĭà¤·à¤¯":4187,"à¤¤à¤ľà¤¨":4188,"à¤¦à¤µà¤°":4189,"Ġà¤ħà¤¸à¤¤":4190,"à¤ŀà¤µà¤²":4191,"à¤ľà¤¯à¤¨à¤Ĺà¤°à¤¸":4192,"à¤¯à¤·":4193,"Ġà¤ħà¤²à¤Ńà¤¤":4194,"à¤¬à¤°à¤®à¤¤":4195,"à¤°à¤¦à¤ª":4196,"org":4197,"distric":4198,"à¤°à¤«":4199,"à¤®à¤²à¤ķ":4200,"à¤§à¤Ĺ":4201,"Ġà¤ıà¤°":4202,"Ġà¤īà¤ªà¤ķ":4203,"à¤ĭà¤·":4204,"à¤®à¤«à¤²":4205,"à¤²à¤ľà¤¨":4206,"Ġà¤¦à¤¦à¤°":4207,"ÉĻn":4208,"à¤£à¤¸à¤®":4209,"Ġà¤Ĩà¤µà¤°":4210,"à¤ŀà¤¤":4211,"à¤ļà¤¨à¤ķ":4212,"à¤£à¤ľ":4213,"Ġ1950":4214,"à¤µà¤ķà¤²":4215,"ÉĻlÉĻm":4216,"à¤µà¤°à¤®à¤¨":4217,"--":4218,"ĉĉ":4219,"à¤¦à¤¬":4220,"à¤¡à¤¯à¤¤":4221,"Ġà¤ĺà¤¨":4222,"à¤ĺà¤Łà¤¨à¤¸":4223,"à¤¸à¤Ĺ":4224,"à¤²à¤ķà¤°":4225,"àªµ":4226,"ec":4227,"ĠD":4228,"à¤µà¤ªà¤¤":4229,"Ġà¤ħà¤ľà¤®":4230,"Ġà¤ıà¤ķà¤µà¤°":4231,"ÉĻndÉĻlÉĻm":4232,"ot":4233,"à¥ģ:":4234,"à¤Ńà¤µà¤¸":4235,"à¤®à¤ŀ":4236,"à¤°à¤Ńà¤µà¤¤":4237,"Ġà¤ħà¤µà¤¨":4238,"Ġà¤ªà¤Ļ":4239,"Ġà¤¤à¤¤à¤¶":4240,"à¤ıà¤¨":4241,"à¤Ĩà¤°à¤£":4242,"à¤²à¤Ńà¤¸":4243,"à¤¨à¤¯à¤¨":4244,"à¤£à¤¨à¤®à¤¸":4245,"Ġà¤µà¤ļ":4246,"Ġà¤ħà¤ªà¤¶":4247,"à¤«à¤²à¤ķà¤®":4248,"à¤µà¤ŀ":4249,"à¤ķà¤®à¤¨":4250,"à¤ªà¤°à¤¤":4251,"à¤¥à¤¬":4252,"à¤°à¤¸à¤¸":4253,"à¤¿à¤ĥà¥¤à¥¤":4254,"à¤ħà¤Ļ":4255,"tar":4256,"Ġà¤¬à¤§":4257,"à¤¨à¤®à¤¤":4258,"à¤¡à¤Ń":4259,"Ġà¤īà¤ªà¤¹":4260,"à¤²à¤¸à¤®":4261,"Ġà¤¨à¤Ĺà¤°à¤ľà¤¨":4262,"Ġà¤īà¤ªà¤¨à¤¯à¤¨à¤¸":4263,"Ġà¤İà¤°à¤£":4264,"à¤ļà¤ª":4265,"à¤¤à¤¨à¤Ł":4266,"à¤īà¤ªà¤®à¤£":4267,"ĠPu":4268,"à¤®à¤®à¤¨":4269,"à¤²à¤µà¤°":4270,"Ġà¤Ĺà¤Ŀ":4271,"à¤¨à¤¡à¤®à¤£":4272,"ex":4273,"à¥Īà¤ĥà¥¤à¥¤":4274,"à¤ĵà¤¡":4275,"à¤ļà¤¯à¤¨":4276,"Ġà¤¸à¤¹à¤¯":4277,"à¤®à¤ł":4278,"à¤Ĺà¤²à¤ķ":4279,"à¤µà¤¨à¤ķ":4280,"à¤¤à¤¨à¤§":4281,"à¤¯à¤ľà¤¨à¤¤":4282,"à¤°à¤«à¤²":4283,"à¤¦à¤ľ":4284,"à¥ģà¤Ĥ,":4285,"Ġà¤ªà¤¤à¤¨":4286,"Ġà¤ĩà¤ŀ":4287,"Ġà¤ıà¤ķà¤¶à¤¤":4288,"Ġà¤ĸà¤®":4289,"à¤°à¤³à¤°":4290,"à¥ģà¥į":4291,"Ġà¤ĩà¤¹":4292,"à¤µà¤°à¤¯":4293,"à¤£à¤ªà¤°à¤®à¤¹":4294,"pr":4295,"à¤Ĳà¤¤à¤°":4296,"à¤¨à¤¯à¤¨à¤¸":4297,"à¤µà¤ĺ":4298,"Ġà¤ħà¤ŀ":4299,"Ġà¤ĩà¤¤à¤°":4300,"à¤Ĺà¤¢à¤®à¤£":4301,"àª¡":4302,"à¤®à¤¨à¤¸":4303,"Ġon":4304,"à¤¸à¤®à¤°":4305,"ik":4306,"à¤¬à¤§":4307,"à¤¯à¤£à¤Ĺ":4308,"Ġà¤Ĳà¤ļ":4309,"à¤¤à¤µà¤¸":4310,"Ġà¤ľà¤¨à¤¯":4311,"Ġà¤®à¤ķà¤°":4312,"Ġà¤Ńà¤²":4313,"Ġà¤ľà¤¯à¤¸":4314,"à¤¸à¤µà¤¨à¤¸":4315,"à¤¦à¤²à¤¸":4316,"à¤®à¤°à¤¨":4317,"à¤ķà¤¦à¤°":4318,"à¤ªà¤ķà¤°":4319,"à¤¤à¤¤à¤¸":4320,"Ġ1956":4321,"à¤¥à¤ľ":4322,"à¤°à¤¤à¤µ":4323,"à¤ĩà¤²":4324,"iËĲ":4325,"un":4326,"à¤¯à¤ļà¤ķ":4327,"à¥Įà¥¤à¥¤":4328,"âĢ³":4329,"av":4330,"à¤Ńà¤Ļ":4331,"à¤¨à¤¡à¤¸":4332,"à¤¨à¤ªà¤¦":4333,"Ġà¤ªà¤¤à¤¤":4334,"à¤¸à¤°à¤¤":4335,"à¤²à¤ªà¤¤":4336,"à¤¶à¤¯à¤¸":4337,"à¥ĭà¤ĥ,":4338,"à¤§à¤¸à¤Ļ":4339,"à¤¯à¤¯à¤¨à¤¸":4340,"à¤¦à¤¨à¤¸à¤°à¤¸":4341,"ig":4342,"edic":4343,"ab":4344,"à¤¯à¤¯à¤®":4345,"à¥ģ.":4346,"sh":4347,"à¤®à¤ľà¤¨":4348,"à¤µà¤¹à¤¤":4349,"Ġà¤°à¤®à¤£à¤®à¤¹à¤°":4350,"à¥ĩ\"":4351,"Ġà¥¤\"":4352,"Ġà¤¤à¤ŀ":4353,"à¤·à¤£à¤µ":4354,"Ġfor":4355,"ov":4356,"up":4357,"Ġà¤ħà¤°à¤¨":4358,"Ġà¤ľà¤¡":4359,"à¤½à¤Ĺ":4360,"à¤®à¤¨à¤¨":4361,"Ġà¤ķà¤¥à¤¨à¤®":4362,"Ġà¤®à¤ŀ":4363,"à¤¨à¤¸à¤®à¤¯":4364,"og":4365,"à¤¤à¤¦à¤°":4366,"à¤Łà¤µà¤¨":4367,"Ġà¤Ńà¤µà¤¦":4368,"Ġà¤Ńà¤ľà¤¨à¤®":4369,"à¤¯à¤¨à¤¶":4370,"à¤¤à¤°à¤¨":4371,"à¤°à¤£à¤µ":4372,"à¤ªà¤ķà¤¤":4373,"à¤®à¤¶à¤ķà¤Łà¤¯":4374,"Ġà¤ªà¤°à¤®à¤ª":4375,"à¥łà¤¤":4376,"ĠV":4377,"à¤°à¤®à¤¦":4378,"Ġà¤ħà¤¹à¤Ļ":4379,"ais":4380,"à¤¨à¤·":4381,"à¤ķà¤ķà¤°":4382,"à¤®à¤¦à¤°":4383,"Ġà¤ĺà¤£":4384,"Ġden":4385,"à¤Łà¤¶":4386,"omin":4387,"Êĥ":4388,"à¤¤à¤ªà¤¦":4389,"à¤¦à¤¨à¤¨":4390,"Ġà¤ħà¤ĺ":4391,"à¤£à¤¬":4392,"Ġà¤¹à¤®":4393,"à¤®à¤ķà¤°à¤£à¤®":4394,"à¤±":4395,"Ġ1920":4396,"1947":4397,"à¤®à¤¹à¤¸":4398,"à¤³à¤Ń":4399,"Ġr":4400,"à¤¯à¤ªà¤¤":4401,"Ġà¤īà¤Ĺ":4402,"à¯":4403,"à¤®à¤®à¤£":4404,"à¤ªà¤ķà¤¸":4405,"Ġà¤¨à¤Ł":4406,"àª¦":4407,"Ġà¤ĵà¤£à¤®":4408,"ess":4409,"Hindu":4410,"à¤®à¤®à¤¹":4411,"à¥ģà¤¾":4412,"Ġà¤ĵà¤ķ":4413,"à¤¦à¤µà¤®à¤¨":4414,"Ġvedic":4415,"Sama":4416,"uà¤Ĺà¤£":4417,"à¤®à¤¤à¤®":4418,"à¤®à¤¤à¤¸":4419,"à¤Łà¤¬":4420,"Ġà¤¦à¤¯à¤¨à¤¨":4421,"Ġ1930":4422,"à¤¤à¤¨à¤ªà¤ŀ":4423,"thand":4424,"ĠBais":4425,"akhi":4426,"ationsà¤°":4427,"ĠPuthand":4428,"Ġdenomin":4429,"Ġvedicà¤Ľ":4430,"ĠBaisakhi":4431,"ĠPuthanduà¤Ĺà¤£":4432,"Ġdenominationsà¤°":4433,"à¤¤à¤§":4434,"à¤Łà¤Ĺ":4435,"Ġà¤ļà¤²":4436,"àª®":4437,"ĠE":4438,"tic":4439,"à¤®à¤Ł":4440,"Ġà¤§à¤¨à¤®":4441,"Ġà¤Ĩà¤¶à¤¯":4442,"à¤¨à¤ļà¤¨":4443,"Ġà¤¤à¤ľ":4444,"Ġà¤¤à¤¦à¤ª":4445,"à¤¹à¤¨à¤¦":4446,"à¤ĭà¤¤":4447,"à¤²à¤ĸà¤£":4448,"Ġà¤¨à¤®à¤¸":4449,"Ġà¤§à¤°à¤¤":4450,"Ġà¤īà¤ªà¤ľ":4451,"100":4452,"à¤µà¤¦à¤°":4453,"à¤Ĺà¤Ĺ":4454,"Ġà¤Ĩà¤°à¤£":4455,"ith":4456,"Ġà¤ħà¤¡":4457,"Ġà¤ļà¤¯à¤¨":4458,"à¤µà¤¨à¤¯":4459,"à¤ĸà¤µ":4460,"est":4461,"à¤¥à¤¨à¤®":4462,"à¤¨à¤§":4463,"à¤µà¤³":4464,"Ġà¤Ĩà¤ªà¤¦":4465,"Ġà¤īà¤®":4466,"à¤µà¤ªà¤ķ":4467,"ul":4468,"ĠF":4469,"à¤¯à¤§à¤°":4470,"à¤¦à¤¯à¤®":4471,"Ġà¤ķà¤¨à¤ķ":4472,"à¤°à¤ĺ":4473,"Ġà¤ķà¤µà¤¯":4474,"Ġà¤ķà¤¦à¤®":4475,"à¤ħà¤¹à¤®":4476,"à¤¨à¤Ĺà¤°à¤®à¤£":4477,"à¤Ĥ-":4478,"Ġà¤¦à¤§":4479,"àª¸":4480,"à¤¦à¤¶à¤¦":4481,"à¤Ĩà¤ļ":4482,"à¤¨à¤µà¤¤":4483,"à¤¤à¤¹":4484,"Ġà¤¬à¤¦à¤°":4485,"à¤¯à¤®à¤ķà¤°":4486,"Ġà¤²à¤ľ":4487,"à¤¥à¤²à¤®à¤¸":4488,"à«Ĥ":4489,"ity":4490,"à¥Ģ',":4491,"à¤¥à¤Ń":4492,"à¤¤à¤®à¤ķ":4493,"Ġà¤ħà¤Ńà¤µ":4494,"ita":4495,"à¤¤à¤°à¤ķà¤¨":4496,"Ġis":4497,"à¤·à¤°à¤®":4498,"à¤Ĺà¤§":4499,"à¤¾à¤ĥ'":4500,"à¤µà¤°à¤£à¤¸":4501,"à¤¯à¤ķà¤µ":4502,"à¤īà¤¨":4503,"à¤ľà¤¯à¤¨à¤Ĺà¤°":4504,"Ġà¤ĸà¤°":4505,"à¤§à¤¨à¤¤":4506,"à¤¯à¤µà¤¸à¤¤":4507,"à¤®à¤µà¤°":4508,"Ġà¤µà¤ļà¤¨à¤®":4509,"à¥Ĥà¤ĥ":4510,"à¤¦à¤¶à¤¶à¤¤à¤ķ":4511,"Ġà¤¤à¤ķ":4512,"à¤Ńà¤£":4513,"à¤¾'-":4514,"Ġà¤§à¤¨à¤¸":4515,"à¤µà¤®à¤¤":4516,"à¤¶à¤¤à¤ķà¤¸":4517,"all":4518,"É¡":4519,"à¤¡à¤¯à¤¨":4520,"Ġà¤°à¤¶":4521,"à¤µà¤°à¤µ":4522,"à¤µà¤¶à¤ķ":4523,"Ġà¤¤à¤°à¤Ļ":4524,"Ġà¤Ĭà¤¹":4525,"à¤ķà¤¯à¤¨":4526,"Ġà¤ħà¤¸à¤¹à¤¯":4527,"Ġà¤¶à¤¤à¤ª":4528,"à¤½à¤Ļ":4529,"Ġ1991":4530,"Ġà¤ħà¤°à¤ļà¤¯à¤¤":4531,"à¤Īà¤¶":4532,"à¤¾:,":4533,"à¥ħ":4534,"à¤ķà¤¤à¤°":4535,"à¤ľà¤Ĺà¤¤":4536,"Ġà¤Ńà¤¸":4537,"Ġà¤ıà¤µà¤ŀ":4538,"à¤¨à¤µà¤Ĺ":4539,"Ġ2006":4540,"à¥ģ'":4541,"à¤¶à¤ļà¤¨":4542,"Ġà¤ķà¤®à¤ª":4543,"à¤Īà¤¸":4544,"Ġà¤Īà¤°":4545,"ist":4546,"ĠN":4547,"àª¿":4548,"ĠĠĠ":4549,"ĠJ":4550,"à¤¤à¤Ł":4551,"à¥ģà¥¤":4552,"à¤²à¤ļà¤°":4553,"à¤ĩà¤¯":4554,"àª¾àªĤ":4555,"à³į":4556,"à¤ªà¤¸à¤®":4557,"à¤£à¤ªà¤°":4558,"Ġà¤ĭà¤ķ":4559,"ÉĻd":4560,"age":4561,"à¤ķà¤Łà¤°":4562,"à¤Ĺà¤¬":4563,"Ġà¤Ńà¤ľà¤¤":4564,"à¤ĸà¤¯":4565,"uttar":4566,"à¤§à¤ļ":4567,"Ġà¤¶à¤²":4568,"à¤°à¤¤à¤ķ":4569,"à¤°à¤¤à¤°à¤¤":4570,"à¤ľà¤¨à¤µ":4571,"à¤¨à¤¤à¤ª":4572,"Ġ0":4573,"ĠK":4574,"à¤¿à¤ĥ'":4575,"à¤¨à¤Ĺà¤°à¤¤":4576,"à°":4577,"à¤ªà¤¥à¤®":4578,"à¤§à¤°à¤¸":4579,"Ġà¤Ńà¤ľà¤¨":4580,"Ġà¤¸à¤®à¤Ń":4581,"Ġà¤ħà¤§à¤°":4582,"à¤Ĺà¤µà¤°":4583,"à¤Ĺà¤¸à¤®":4584,"à¤ľà¤¯à¤®":4585,"ob":4586,"Ġà¤ħà¤ľà¤¨":4587,"Ġà¤ħà¤ªà¤°à¤¤":4588,"âĢĻ,":4589,"à¤īà¤°à¤ķ":4590,"Ġà¤Ĺà¤Ŀà¤¨":4591,"ks":4592,"à¤£à¤ªà¤¤":4593,"Ġà¤µà¤£":4594,"à¤§à¤°à¤£":4595,"à¤¯à¤¨à¤ķ":4596,"àª¹":4597,"Ġà¤¢":4598,"à¤ªà¤ªà¤¨":4599,"à¥ĭ.":4600,"à¤§à¤ķà¤°":4601,"Ġà¤ĸà¤Ĺ":4602,"à¤¸à¤ľ":4603,"àª²":4604,"à¤¾:à¥¤":4605,"arat":4606,"à¥Ģà¥¤à¥¤":4607,"à¤ŀà¤ķ":4608,"à¤½à¤½à¤¸":4609,"à¥§à¥¦":4610,"à¤ľà¤Ļ":4611,"à¤¡à¤²à¤¦":4612,"Ġà¤²à¤µà¤£":4613,"à¤²à¤ķà¤£":4614,"Ġà¤Ńà¤µà¤Ń":4615,"Ġà¤«à¤²à¤¤":4616,"à¤Ĩà¤Ĺ":4617,"ana":4618,"ang":4619,"âĢ¢âĢ¢":4620,"Ġ;":4621,"à¤¤à¤®à¤°":4622,"Ġà¤ħà¤¸à¤Ļ":4623,"à¤ĩà¤¡":4624,"à¤°à¤¥à¤®à¤ª":4625,"à¤¤à¤°à¤®à¤ª":4626,"Ġà¤Ĳà¤ķ":4627,"à²°":4628,"à¤ķà¤¹":4629,"à¤§à¤ľ":4630,"à¤°à¤µà¤ķ":4631,"à¤¯à¤µà¤¹à¤°à¤¨":4632,"ord":4633,"ofindia":4634,"if":4635,"à¤ªà¤°à¤¯":4636,"à¤½à¤¦":4637,"à¤īà¤£":4638,"à¤µà¤®à¤£":4639,"à¤°à¤¸à¤¦":4640,"à¤°à¤¹à¤®":4641,"à¤Ĩà¤ª":4642,"à¤īà¤ªà¤¤":4643,"à¤īà¤ªà¤¨":4644,"Ġà¤Ĩà¤Ĺà¤¤à¤µà¤¨":4645,"à¥Ĥà¤Ĥ":4646,"Ġà¤Ńà¤°à¤¤à¤¸":4647,"Ġà¤ıà¤¡":4648,"à¤°à¤Ńà¤µ":4649,"à¤ıà¤¤à¤¦":4650,"à¤¤à¤ªà¤¤":4651,"à¤¸à¤³":4652,"à¤Ĺà¤£à¤®":4653,"Ġà¤°à¤ľà¤¤":4654,"à¤łà¤µ":4655,"à¤ĺà¤¦":4656,"Ġà¤īà¤ªà¤ķà¤°à¤£":4657,"à¤ıà¤¶":4658,"à¤¢à¤¶":4659,"à¤Ńà¤µà¤¨à¤¸":4660,"Ġà¤¶à¤¯à¤¨":4661,"à¤°à¤ķà¤¤":4662,"à¤Ľà¤ª":4663,"à¤¿à¤Ĥ,":4664,"district":4665,"à¤¯à¤®à¤µ":4666,"à¤µà¤Ĺà¤Ļ":4667,"à¤¬à¤µ":4668,"à¤²à¤¨à¤ķ":4669,"à¤¶à¤ľà¤¨":4670,"à¤°à¤®à¤°":4671,"à¤ĸà¤°à¤®":4672,"Ġà¤²à¤¤":4673,"à¤·à¤£à¤®à¤ª":4674,"à¤«à¤¤":4675,"à¤®à¤¯à¤®":4676,"Ġà¤®à¤¥":4677,"Ġà¤§à¤°à¤¨":4678,"à¤³à¤¨":4679,"Ġ2007":4680,"Ġà¤ħà¤¦à¤¦":4681,"2001":4682,"our":4683,"à´":4684,"à¤¯à¤°à¤¸":4685,"à¤¸à¤°à¤¨":4686,"à¤ķà¤®à¤¹":4687,"Ġà¤®à¤²à¤ª":4688,"Ġà¤¹à¤²":4689,"Ġà¤īà¤ªà¤Ń":4690,"à¤¨à¤ķà¤¸":4691,"à¤¸à¤®à¤¸":4692,"Ġà¤¨à¤¯":4693,"Ġà¤¦à¤Ĺ":4694,"à¤¡à¤¹":4695,"à¤¬à¤Ń":4696,"à¤ĸà¤°à¤¸":4697,"à¤īà¤ķ":4698,"à¤ļà¤²à¤¤":4699,"à¤°à¤¸à¤ķ":4700,"Ġà¤ľà¤¨à¤ªà¤¦à¤®":4701,"à¤²à¤¯à¤ªà¤°":4702,"à¤Ĩà¤ĸ":4703,"à¤¾',":4704,"Ġà¤¸à¤«à¤²à¤¤":4705,"à¤¯à¤¤à¤°":4706,"Ġà¤ħà¤¨à¤¶à¤¨":4707,"Ġ1980":4708,"à¤¨à¤µà¤ľ":4709,"à¤¨à¤¤à¤¸":4710,"à¤®à¤µà¤¤":4711,"à¤ľà¤¨à¤ªà¤¦":4712,"Ġà¤¨à¤¹":4713,"Ġà¤ıà¤ļ":4714,"à¤¯à¤®à¤ķ":4715,"Ġà¤Ĺà¤¤à¤µà¤¤":4716,"ce":4717,"oÊĬ":4718,"ter":4719,"à¤¸à¤µà¤¦à¤¤":4720,"à¤µà¤°à¤¤":4721,"à¤ķà¤®à¤ª":4722,"à¤¹à¤¶":4723,"à¤½à¤¬":4724,"à¤ħà¤ļ":4725,"à¤ļà¤£":4726,"à¤¡à¤¬":4727,"à¤¡à¤¨à¤®":4728,"Ġà¤ħà¤¸à¤¨":4729,"Ġà¤¶à¤¯":4730,"à¤µà¤²à¤¨":4731,"Ġà¤ķà¤¥à¤ŀ":4732,"à¤¶à¤¦à¤§":4733,"Ġà¤ħà¤«à¤Ĺ":4734,"'s":4735,"à¤°à¤Ĺà¤£":4736,"à¤Ńà¤°à¤¤":4737,"Ġà¤®à¤Ī":4738,"Ġà¤¨à¤Ĺ":4739,"Ġà¤ħà¤ªà¤łà¤¤":4740,"à¤Ĺà¤®à¤¨à¤®":4741,"à¤ªà¤¨à¤¸":4742,"à¤ªà¤ķà¤°à¤£":4743,"Ġà¤¨à¤°à¤ķ":4744,"Ġà¤¹à¤ķ":4745,"à¤¶à¤¨à¤¶":4746,"à¤¶à¤ªà¤°":4747,"Ġà¤¦à¤¶à¤¸":4748,"Ġà¤¤à¤¤à¤¸":4749,"à¤Ľà¤¸":4750,"Ġà¤Ńà¤µà¤¨à¤¸":4751,"à¤īà¤¡":4752,"Ġà¤ĺà¤¨à¤¤":4753,"Ġà¤ªà¤łà¤¤":4754,"ĠW":4755,"à¤¨à¤µà¤¨":4756,"à¤ªà¤¯à¤¦":4757,"Ġà¤ªà¤ª":4758,"Ġà¤®à¤¨à¤®":4759,"à¤ĺà¤²":4760,"à¤¸à¤ķà¤¸":4761,"Ġà¤īà¤¸":4762,"Ġà¤µà¤°à¤¦":4763,"Ġà¤ķà¤²à¤¹":4764,"Ġàª¤":4765,"anch":4766,"à¤µà¤¯à¤®à¤ª":4767,"ÊĴ":4768,"à¤¤à¤²à¤¨":4769,"à¤¯à¤²à¤ķ":4770,"à¥Ģ\"":4771,"Ġà¤Ĺà¤£à¤¸":4772,"Ġà¤ħà¤ªà¤°à¤¸":4773,"Ġà¤®à¤¹à¤¨":4774,"à¤°à¤Ńà¤µà¤¨":4775,"Ġà¤ĸà¤¡":4776,"à¤¥à¤¯à¤¨":4777,"à¤½à¤¶":4778,"Ġ1975":4779,"à¤¤à¤¨à¤ª":4780,"à²¿":4781,"à¤¨à¤ªà¤¤":4782,"à¤µà¤ķà¤¸à¤Ļ":4783,"à¤£à¤®à¤¨":4784,"à¤¡à¤²à¤¤":4785,"à¤½à¤®":4786,"Ġ1974":4787,"Ġà¤ĺà¤°":4788,".]":4789,"Ġà¤Ĩà¤ªà¤£":4790,"Ġ1948":4791,"à¤¤à¤¨à¤µ":4792,"à¤¯à¤ªà¤ķ":4793,"Ġà¤ħà¤¯à¤¸":4794,"à¤¹à¤ľà¤¹":4795,"Ġà¤®à¤¤à¤¸":4796,"à¤¯à¤¨à¤¦":4797,"od":4798,"à¤¨à¤°à¤ª":4799,"à¤ķà¤²à¤¨":4800,"à¤¤à¤°à¤µ":4801,"à¤°à¤¹à¤£à¤®":4802,"à¤°à¤Ńà¤ķ":4803,"à¤ªà¤®à¤¸":4804,"à¤£à¤ķà¤¨":4805,"à¥ģà¤ĥ...":4806,"Ġwith":4807,"ĠRama":4808,"à¤ªà¤§":4809,"à¤§à¤²":4810,"à¤§à¤¦à¤°":4811,"à¥įâĢĵ":4812,"Ġre":4813,"à¤Ĺà¤£à¤¸":4814,"à¤¹à¤³":4815,"à¤ľà¤¨à¤ª":4816,"à¤¯à¤ªà¤°à¤®":4817,"ast":4818,"à¤®à¤Ī":4819,"à¤¦à¤°à¤¦":4820,"à¤£à¤µà¤¤":4821,"Ġ1977":4822,"à¤ħà¤¸à¤®":4823,"à¤ķà¤Łà¤¸":4824,"Ġà¤¯à¤²":4825,"à¤ħà¤£":4826,"à¤Ĺà¤£à¤ªà¤¤":4827,"à¤Łà¤ķà¤¸à¤Ļ":4828,"à³ģ":4829,"Ġà¤ĭà¤·à¤Ńà¤¦":4830,"ear":4831,"à¤ªà¤¦à¤°":4832,"Ġà¤Ńà¤£":4833,"Ġà¤ĩà¤°":4834,"Ġà¤Ĩà¤²à¤®":4835,"Ġà¤²à¤µ":4836,"Ġ1992":4837,"à¤²à¤ķà¤®à¤¹":4838,"à¤Ĺà¤¢à¤µ":4839,"ore":4840,"Ġar":4841,"à¤°à¤°à¤¸":4842,"à¤°à¤²à¤®":4843,"à¤¨à¤Ł":4844,"à¤ķà¤°à¤¤":4845,"à¤Ĥ.":4846,"Ġà¤µà¤ŀ":4847,"Ġ1998":4848,"à¤ļà¤¨à¤¯":4849,"Ġà¤Ĳà¤²":4850,"ct":4851,"à¤£à¤ªà¤¦":4852,"Ġà¤ľà¤¨à¤®":4853,"à¤¯à¤¨à¤Ĺà¤°":4854,"à¤Łà¤ķà¤µ":4855,"Ġ\",":4856,"Ġà¤ªà¤¦à¤®":4857,"ish":4858,"à¤ķà¤®à¤£":4859,"Ġ1940":4860,"Ġà¤Ķà¤°":4861,"à¤µà¤¯à¤µ":4862,"à¤ķà¤¤à¤¤":4863,"à¤ĩà¤°":4864,"ÉĻmÉĻndÉĻlÉĻm":4865,"ĠInd":4866,"Ġà¤¶à¤¤à¤ªà¤¥à¤¬":4867,"à¤¤à¤¶à¤¤":4868,"Ġà¤«à¤¤":4869,"Ġà¤«à¤²à¤¸":4870,"Ġà¤ĵà¤¹":4871,"à¤¹à¤ľ":4872,"Ġ1942":4873,"à¤ĩà¤Ļ":4874,"à¤ıà¤ķà¤¸":4875,"Ġà¤¡à¤ķ":4876,"Ġà¤īà¤¦à¤¯à¤Ĺ":4877,"Ġà¤®à¤ķà¤°à¤¸à¤Ļ":4878,"à¤ķà¤§":4879,"à¥§à¥§":4880,"à²¾":4881,"à¤¿à¤ģ":4882,"à¤ķà¤ļà¤¤":4883,"à¥ĭ'":4884,"à¤ļà¤®à¤¹":4885,"Ġà¤¶à¤ļ":4886,"Ġà¤īà¤ªà¤¤":4887,"à¤¶à¤¨à¤¯":4888,"Ġà¤ĳà¤ķ":4889,"uttaranch":4890,"uttaranchal":4891,"Ġà¤ľà¤²à¤¯":4892,"Ġà¤°à¤¹":4893,"à¤°à¤¤à¤°":4894,"à¤¤à¤®à¤¬":4895,"à¤·à¤¸à¤®":4896,"à¤ĩà¤ķ":4897,"à¤°à¤ļà¤°":4898,"à¤ªà¤£à¤ķ":4899,"Ġà¤īà¤Ńà¤¯à¤¤":4900,"aps":4901,"à¯į":4902,"à¤ĳ":4903,"Ġà¤ļà¤®à¤¤":4904,"Ġ1967":4905,"Ġ1966":4906,"à¤ľà¤¨à¤¤":4907,"à¤¤à¤¨à¤¯":4908,"à¤°à¤¥à¤®à¤¶":4909,"Ġàª¨":4910,"à¤£à¤Ńà¤Ł":4911,"Ġà¤®à¤¦à¤¨à¤®":4912,"ain":4913,"à¤¶à¤¨à¤ķ":4914,"Ġà¤¨à¤µà¤¸":4915,"Ġà¤®à¤¦à¤¨à¤²":4916,"ath":4917,"Ġà¤ħà¤ªà¤¤":4918,"à¤½à¤µ":4919,"à¤®à¤£à¤¯":4920,"Ġ1961":4921,"à¤¤à¤¨à¤¶":4922,"à¤¢à¤¤":4923,"Ġà¤¸à¤¦à¤¨":4924,"Ġà¥¤'":4925,"à¤§à¤ķà¤¸":4926,"Ġà¤²à¤ĸà¤¨":4927,"Ġà¤ĵà¤·à¤§":4928,"à¤µà¤Ńà¤ķ":4929,"Ġà¤Ĺà¤£à¤ªà¤¤":4930,"à¤¸à¤®à¤¨":4931,"à¤¥à¤ł":4932,"Ġà¤Ĩà¤ĺ":4933,"Ġà¤ļà¤°à¤¤":4934,"àª£":4935,"à¤µà¤¶à¤°":4936,"à¤īà¤¥":4937,"st":4938,"à¤®à¤ĺà¤Ł":4939,"à¤¸à¤°à¤ķ":4940,"Ġà¤¬à¤ķ":4941,"à¤°à¤ķà¤£":4942,"ÉĳËĲr":4943,"Ġà¤ľà¤¨à¤°à¤²":4944,"à¤·à¤ľà¤¨":4945,"à¤Ĺà¤®à¤¤":4946,"à¤§à¤®à¤¨":4947,"Ġà¤ľà¤²à¤ķ":4948,"Ġ1990":4949,"à¤ıà¤ķà¤¤":4950,"ÉĻt":4951,"à¤±à¤®":4952,"à¤®à¤¥":4953,"à¤£à¤¯à¤¸":4954,"à¤¤à¤®à¤Ń":4955,"à¤Ĩà¤®":4956,"à¤Ĺà¤²à¤µ":4957,"à¤®à¤²à¤®":4958,"à¤ķà¤§à¤°":4959,"à¤¦à¤¹":4960,"à¤¯à¤®à¤°":4961,"Ġà¤ħà¤¨à¤¯à¤¤":4962,"Ġà¤ıà¤¤à¤¦à¤°":4963,"Ġà¤ħà¤µà¤¬":4964,"Ġàªľ":4965,"maps":4966,"à¤®à¤°à¤ķ":4967,"à¤ªà¤£à¤¸":4968,"à¤Łà¤ªà¤°":4969,"à¤¬à¤ľ":4970,"à¤¬à¤²à¤®":4971,"à¤°à¤¤à¤¤":4972,"Ġ1964":4973,"à¤°à¤¯à¤µ":4974,"à¤¸à¤¨à¤µ":4975,"à¤°à¤µà¤¨":4976,"à¤¯à¤ļà¤¨":4977,"à¤ŀà¤µ":4978,"à¤łà¤¯à¤¤":4979,"à¤°à¤µà¤®":4980,"à¤¯à¤ķà¤°à¤£":4981,"à¤¨à¤ľà¤¨":4982,"à¤·à¤ļà¤°":4983,"à¤§à¤¸à¤®":4984,"à¤Łà¤¨à¤®":4985,"Ġà¤Ĩà¤µà¤²":4986,"à¤¿à¤ĥâĢĿ":4987,"Ġà¤ħà¤¤à¤ıà¤µ":4988,"à¤¤à¤°à¤ªà¤¦à¤µ":4989,"à¤łà¤²":4990,"Ġà¤Ĳà¤¡à¤¹":4991,"ph":4992,"rit":4993,"à¤¨à¤¯à¤¤":4994,"à¤ķà¤ķà¤²":4995,"Ġà¤Ĩà¤®à¤¨":4996,"à¤°à¤µà¤ª":4997,"à«ģ":4998,"Ġà¤ļà¤²à¤¨à¤ļ":4999}